#ifndef PNET_H
#define PNET_H


unsigned int pnet_len = 12816;
unsigned char pnet[] = {
 0x1c, 0x00, 0x00, 0x00, 0x54, 0x46, 0x4c, 0x33, 0x00, 0x00, 0x12, 0x00,
  0x1c, 0x00, 0x18, 0x00, 0x14, 0x00, 0x10, 0x00, 0x0c, 0x00, 0x08, 0x00,
  0x00, 0x00, 0x04, 0x00, 0x12, 0x00, 0x00, 0x00, 0x18, 0x00, 0x00, 0x00,
  0x48, 0x00, 0x00, 0x00, 0xc4, 0x1b, 0x00, 0x00, 0xd4, 0x1b, 0x00, 0x00,
  0x64, 0x31, 0x00, 0x00, 0x03, 0x00, 0x00, 0x00, 0x01, 0x00, 0x00, 0x00,
  0x0c, 0x00, 0x00, 0x00, 0x08, 0x00, 0x0c, 0x00, 0x08, 0x00, 0x04, 0x00,
  0x08, 0x00, 0x00, 0x00, 0x13, 0x00, 0x00, 0x00, 0x04, 0x00, 0x00, 0x00,
  0x13, 0x00, 0x00, 0x00, 0x6d, 0x69, 0x6e, 0x5f, 0x72, 0x75, 0x6e, 0x74,
  0x69, 0x6d, 0x65, 0x5f, 0x76, 0x65, 0x72, 0x73, 0x69, 0x6f, 0x6e, 0x00,
  0x14, 0x00, 0x00, 0x00, 0x78, 0x1b, 0x00, 0x00, 0x6c, 0x1b, 0x00, 0x00,
  0x34, 0x1b, 0x00, 0x00, 0xe4, 0x1a, 0x00, 0x00, 0x54, 0x1a, 0x00, 0x00,
  0x34, 0x19, 0x00, 0x00, 0x84, 0x13, 0x00, 0x00, 0x74, 0x01, 0x00, 0x00,
  0xe4, 0x00, 0x00, 0x00, 0x94, 0x00, 0x00, 0x00, 0x74, 0x00, 0x00, 0x00,
  0x5c, 0x00, 0x00, 0x00, 0x54, 0x00, 0x00, 0x00, 0x4c, 0x00, 0x00, 0x00,
  0x44, 0x00, 0x00, 0x00, 0x3c, 0x00, 0x00, 0x00, 0x34, 0x00, 0x00, 0x00,
  0x2c, 0x00, 0x00, 0x00, 0x24, 0x00, 0x00, 0x00, 0x04, 0x00, 0x00, 0x00,
  0x4a, 0xe4, 0xff, 0xff, 0x04, 0x00, 0x00, 0x00, 0x10, 0x00, 0x00, 0x00,
  0x31, 0x2e, 0x35, 0x2e, 0x30, 0x00, 0x00, 0x00, 0x00, 0x00, 0x00, 0x00,
  0x00, 0x00, 0x00, 0x00, 0xf8, 0xe4, 0xff, 0xff, 0xfc, 0xe4, 0xff, 0xff,
  0x00, 0xe5, 0xff, 0xff, 0x04, 0xe5, 0xff, 0xff, 0x08, 0xe5, 0xff, 0xff,
  0x0c, 0xe5, 0xff, 0xff, 0x10, 0xe5, 0xff, 0xff, 0x82, 0xe4, 0xff, 0xff,
  0x04, 0x00, 0x00, 0x00, 0x08, 0x00, 0x00, 0x00, 0x17, 0xff, 0xff, 0xff,
  0xf6, 0x00, 0x00, 0x00, 0x96, 0xe4, 0xff, 0xff, 0x04, 0x00, 0x00, 0x00,
  0x10, 0x00, 0x00, 0x00, 0x39, 0x01, 0x00, 0x00, 0xf3, 0xfe, 0xff, 0xff,
  0x8c, 0xff, 0xff, 0xff, 0x07, 0x01, 0x00, 0x00, 0xb2, 0xe4, 0xff, 0xff,
  0x04, 0x00, 0x00, 0x00, 0x40, 0x00, 0x00, 0x00, 0x35, 0xcc, 0x41, 0xc1,
  0xac, 0x2a, 0xa7, 0x01, 0xcc, 0xb7, 0x3d, 0x31, 0xf9, 0xc8, 0xb7, 0x10,
  0xd5, 0x03, 0xca, 0xa9, 0x3f, 0xbb, 0x56, 0x14, 0x44, 0x35, 0x7f, 0x71,
  0xc0, 0x53, 0x53, 0x2b, 0xb3, 0x56, 0xc5, 0x5a, 0x20, 0x26, 0x3f, 0x46,
  0x6e, 0x3c, 0xca, 0xd0, 0x01, 0xf6, 0x34, 0x2b, 0x2c, 0x1e, 0x39, 0x29,
  0x91, 0x3d, 0x9c, 0x13, 0x81, 0xe5, 0xab, 0xa8, 0x53, 0x9f, 0xd3, 0xd3,
  0xfe, 0xe4, 0xff, 0xff, 0x04, 0x00, 0x00, 0x00, 0x80, 0x00, 0x00, 0x00,
  0x01, 0x00, 0xfe, 0x01, 0xff, 0xd9, 0xfb, 0x01, 0xfd, 0xfd, 0x01, 0xfc,
  0x09, 0xff, 0xff, 0x7f, 0xfe, 0xf9, 0xfe, 0xf7, 0xfb, 0xfe, 0x02, 0x1d,
  0x00, 0x03, 0x09, 0x02, 0xfe, 0x01, 0xfe, 0x0a, 0x00, 0x01, 0xf9, 0x03,
  0x00, 0x18, 0xfc, 0x01, 0x03, 0x01, 0xfe, 0xfd, 0x0d, 0x02, 0xff, 0x91,
  0xfe, 0xf9, 0x01, 0xff, 0x05, 0x01, 0x0d, 0xef, 0xf9, 0x01, 0x06, 0x00,
  0x00, 0x02, 0xfc, 0x7f, 0x00, 0x01, 0xfd, 0x04, 0x02, 0x94, 0x01, 0x00,
  0xff, 0x01, 0xfd, 0xfc, 0xff, 0x02, 0x03, 0x0e, 0xfe, 0xff, 0x01, 0x0d,
  0xf3, 0x02, 0xfe, 0x27, 0xf9, 0xfe, 0xfe, 0x00, 0x01, 0xfc, 0xf8, 0x81,
  0x00, 0xfe, 0x00, 0xfb, 0xff, 0xc1, 0x00, 0x02, 0xff, 0x03, 0xfe, 0x06,
  0x08, 0x03, 0x01, 0x7f, 0xfe, 0xf8, 0xfe, 0x17, 0xfc, 0xff, 0x12, 0xea,
  0xf2, 0x05, 0x00, 0x11, 0xfe, 0x04, 0xf9, 0x5e, 0x8a, 0xe5, 0xff, 0xff,
  0x04, 0x00, 0x00, 0x00, 0x00, 0x12, 0x00, 0x00, 0x1e, 0x18, 0x11, 0xf7,
  0x1d, 0x0c, 0xc1, 0xb2, 0xee, 0xfe, 0xcb, 0x00, 0x4d, 0xfd, 0x10, 0x43,
  0x13, 0x0b, 0x15, 0xce, 0xf4, 0xe0, 0xc7, 0xd3, 0x2b, 0xda, 0x04, 0xfb,
  0x27, 0xaa, 0x11, 0x0e, 0x43, 0xf9, 0x6a, 0x08, 0x46, 0xb0, 0xc3, 0xe4,
  0x81, 0xab, 0xc0, 0xfa, 0xde, 0xd8, 0xf8, 0x35, 0xc5, 0xff, 0x14, 0x00,
  0x20, 0x16, 0xdd, 0x32, 0xcf, 0xfb, 0xd7, 0x29, 0x04, 0x22, 0xe4, 0xc2,
  0x21, 0x37, 0xe8, 0x08, 0xea, 0xe7, 0x68, 0x0d, 0x03, 0x1b, 0x09, 0xfd,
  0xcd, 0xf5, 0x26, 0x1d, 0xfe, 0x03, 0xd5, 0x14, 0x91, 0xc1, 0xb7, 0xfd,
  0xf0, 0x1a, 0xe4, 0xef, 0xd7, 0xfc, 0x11, 0x3b, 0x8b, 0x11, 0x2a, 0x66,
  0x04, 0x4b, 0x4a, 0x4a, 0x14, 0x28, 0x0f, 0x48, 0xe5, 0x1b, 0x1b, 0x91,
  0xdf, 0xf8, 0xdf, 0x39, 0x21, 0x2d, 0x1e, 0xc5, 0x2d, 0x25, 0x28, 0xff,
  0x44, 0xfe, 0xec, 0xa0, 0x2d, 0x03, 0xef, 0x0c, 0x05, 0xc0, 0xeb, 0xed,
  0xce, 0xf2, 0x24, 0x36, 0xe9, 0xe4, 0x1a, 0x38, 0xf1, 0x12, 0xf8, 0x23,
  0x0b, 0x03, 0x20, 0x30, 0x65, 0x0e, 0x35, 0xfd, 0x11, 0x1d, 0x0b, 0x17,
  0xe1, 0x09, 0x47, 0x36, 0xbc, 0x63, 0x00, 0x21, 0x0b, 0x1d, 0x4d, 0xa0,
  0xc3, 0xf4, 0xfd, 0xfa, 0xc9, 0x29, 0xb1, 0xb9, 0x0b, 0x26, 0xe2, 0xc8,
  0xed, 0x0a, 0x0f, 0x0f, 0x02, 0xe8, 0xef, 0x27, 0xd7, 0xb2, 0x68, 0x34,
  0xdb, 0xf2, 0xfe, 0x06, 0x02, 0x08, 0xe2, 0xd8, 0x32, 0x09, 0x15, 0xe7,
  0x01, 0xed, 0xeb, 0xa4, 0x0b, 0x25, 0xfa, 0xeb, 0x0f, 0x0f, 0xd8, 0xd7,
  0xba, 0xab, 0xf4, 0x04, 0xdb, 0x33, 0x14, 0xe8, 0x3e, 0xc4, 0xbf, 0x0d,
  0x13, 0x01, 0x59, 0xf6, 0x18, 0x0c, 0xbc, 0x2d, 0x81, 0xcc, 0x0a, 0x05,
  0xdd, 0xca, 0xfd, 0x28, 0x13, 0xf3, 0x38, 0x26, 0x18, 0x00, 0x4f, 0x9a,
  0xd4, 0xfb, 0xbb, 0xa5, 0x75, 0xbf, 0x0e, 0xe4, 0xcc, 0xff, 0x37, 0x27,
  0xd9, 0xf3, 0xec, 0xcb, 0xf3, 0x37, 0x1f, 0x9a, 0x50, 0x03, 0x36, 0xf9,
  0x16, 0xff, 0x21, 0xff, 0x17, 0xbb, 0xee, 0x02, 0x30, 0x54, 0xef, 0x0b,
  0x1c, 0xb2, 0xf5, 0x21, 0xa4, 0xe4, 0xf8, 0x92, 0xf8, 0x34, 0xe4, 0x13,
  0x2b, 0x81, 0xc3, 0x17, 0x27, 0x9e, 0xe9, 0xff, 0xa9, 0xfb, 0xf8, 0x04,
  0xed, 0xca, 0x34, 0x21, 0x34, 0xbf, 0xf3, 0x8e, 0xcd, 0xd3, 0xc1, 0x10,
  0xc3, 0xf5, 0xe9, 0xe5, 0x86, 0xb2, 0x3e, 0xe4, 0xae, 0x19, 0x37, 0xfd,
  0xca, 0xaf, 0xab, 0x00, 0xf5, 0x2e, 0xe5, 0xdf, 0x02, 0x14, 0xe4, 0x16,
  0x0e, 0xe1, 0x32, 0xf0, 0x28, 0xd9, 0xea, 0x21, 0x0f, 0x1a, 0xb3, 0x28,
  0xf7, 0x3f, 0x41, 0x10, 0x2b, 0x0c, 0x01, 0x3e, 0x61, 0xdf, 0x1f, 0x20,
  0xfe, 0xfd, 0xf9, 0x2d, 0x23, 0xfd, 0x1e, 0xcf, 0xf2, 0x45, 0xed, 0x12,
  0xbf, 0x01, 0xab, 0xeb, 0x12, 0xef, 0xde, 0x1a, 0xda, 0x14, 0x17, 0x23,
  0xee, 0x41, 0x17, 0xcd, 0x1f, 0x1b, 0x01, 0x49, 0xbd, 0xfb, 0x2a, 0x14,
  0x37, 0x01, 0xca, 0xdd, 0xf1, 0x22, 0xd6, 0xce, 0x04, 0x14, 0x32, 0xf1,
  0x25, 0x14, 0x40, 0xde, 0xf1, 0x4b, 0xd1, 0xe4, 0xe8, 0x81, 0xce, 0x0f,
  0x08, 0x36, 0xb3, 0x10, 0xe8, 0x38, 0xfe, 0x55, 0x3b, 0x0f, 0xdc, 0xfb,
  0xf6, 0xbe, 0x1f, 0xc7, 0xef, 0x0e, 0x22, 0xe8, 0xf1, 0x13, 0x0a, 0x25,
  0xb5, 0x20, 0x07, 0xe3, 0x24, 0x3c, 0x27, 0xed, 0xbc, 0xe7, 0x5f, 0xd2,
  0x2e, 0xc6, 0x40, 0x1a, 0x2b, 0x11, 0xf5, 0xfd, 0x41, 0x28, 0x30, 0x39,
  0xc1, 0xec, 0xed, 0xfa, 0xe0, 0x15, 0xfb, 0x3f, 0x81, 0x38, 0xe6, 0x0b,
  0x19, 0x31, 0xe9, 0xde, 0x12, 0xf2, 0xf8, 0xd5, 0xf7, 0x96, 0x9f, 0x1d,
  0x8d, 0xeb, 0xdb, 0x22, 0x24, 0x38, 0x09, 0xdf, 0x25, 0xd1, 0x49, 0x05,
  0xf7, 0xee, 0x13, 0xe1, 0x47, 0x1a, 0xfc, 0x1d, 0x1e, 0x97, 0x60, 0xed,
  0x3a, 0x10, 0xf2, 0x05, 0x0b, 0x1e, 0xcc, 0xf4, 0xee, 0xf1, 0xe2, 0x1e,
  0x07, 0x94, 0x46, 0x1c, 0xe7, 0x22, 0x09, 0x08, 0xd2, 0xd0, 0xfa, 0xd5,
  0x6e, 0x2b, 0xe1, 0x01, 0x17, 0x1c, 0x3d, 0xf6, 0x6e, 0x10, 0x49, 0x08,
  0x2a, 0xf4, 0x2c, 0xb0, 0x16, 0x12, 0xec, 0x0e, 0xd2, 0x0a, 0x4f, 0xff,
  0x04, 0xf0, 0x3f, 0x06, 0x16, 0x08, 0xd8, 0xfe, 0x1b, 0x48, 0x31, 0x07,
  0xd0, 0x37, 0xae, 0xdc, 0x0e, 0x02, 0xf9, 0x3d, 0x11, 0xba, 0x1e, 0xc7,
  0x3f, 0xec, 0xf9, 0x5b, 0xe8, 0xf8, 0xc3, 0x85, 0xdb, 0xf3, 0x22, 0xd0,
  0x08, 0xfb, 0x0c, 0x31, 0xf3, 0x3c, 0x34, 0xf1, 0xfb, 0x14, 0x1b, 0x06,
  0xe4, 0x21, 0xbb, 0x07, 0xb9, 0x3b, 0x0e, 0x18, 0x5f, 0x2d, 0xcc, 0x1e,
  0xbe, 0xa3, 0x19, 0x1d, 0x04, 0xf0, 0x15, 0x0a, 0xe8, 0xd9, 0x06, 0x09,
  0xe9, 0x08, 0x0e, 0xf1, 0xaa, 0x81, 0x93, 0x0b, 0x31, 0x42, 0x23, 0xe2,
  0x06, 0xd1, 0x58, 0x5d, 0x2a, 0x41, 0x03, 0x1d, 0xfe, 0x30, 0xec, 0xdc,
  0x30, 0xf0, 0x18, 0x17, 0xcb, 0x25, 0x19, 0x29, 0xfe, 0x16, 0x17, 0xf9,
  0x2b, 0xca, 0x99, 0x2b, 0x3d, 0xf3, 0xf0, 0xf6, 0xcf, 0x05, 0x28, 0x10,
  0xf9, 0xf7, 0x04, 0x05, 0x0b, 0xdc, 0x49, 0x23, 0xce, 0xd3, 0x25, 0xe5,
  0xbc, 0xc0, 0xf0, 0xe6, 0xf8, 0x0b, 0x0d, 0xd1, 0xfd, 0xdb, 0xff, 0xe5,
  0x0b, 0x12, 0x1e, 0xe8, 0xd9, 0xb1, 0x39, 0x1b, 0xa7, 0x90, 0xe9, 0xc4,
  0xb0, 0xc2, 0x1b, 0x09, 0xb1, 0x02, 0x12, 0xcc, 0x16, 0x09, 0x0c, 0xe9,
  0x1d, 0x2d, 0x39, 0xad, 0xd3, 0xda, 0xc6, 0xe3, 0xb1, 0x21, 0x0f, 0xa0,
  0xfc, 0x33, 0x01, 0xfb, 0xfc, 0x97, 0x91, 0x14, 0x13, 0xe3, 0xf9, 0x30,
  0x9f, 0xed, 0x03, 0x04, 0xf6, 0xf9, 0xec, 0xe1, 0xb5, 0x29, 0xed, 0xbb,
  0x09, 0xde, 0x1f, 0xcf, 0x1c, 0xc5, 0xe6, 0xd8, 0x97, 0x0c, 0xb9, 0x86,
  0x5e, 0x9c, 0x1d, 0x0b, 0xd1, 0x06, 0xe5, 0x06, 0x36, 0xfd, 0xfa, 0xc0,
  0xff, 0xca, 0x81, 0x9b, 0x41, 0x9f, 0xa7, 0xd6, 0xc3, 0xa2, 0xfb, 0xf1,
  0x00, 0xaf, 0xba, 0x19, 0xbd, 0xcc, 0xb2, 0xdd, 0x03, 0xc2, 0xb5, 0xea,
  0xbc, 0xdf, 0xca, 0xd5, 0xca, 0xa2, 0x09, 0x38, 0x16, 0x2b, 0x09, 0x22,
  0xc6, 0x25, 0x23, 0xdf, 0x1b, 0xa3, 0xca, 0xf7, 0x03, 0xd3, 0x04, 0xf5,
  0xac, 0x05, 0xb7, 0x0a, 0x9f, 0xdf, 0xae, 0x2b, 0x10, 0xe7, 0xff, 0x03,
  0x3a, 0x07, 0xf7, 0xe7, 0xd0, 0x22, 0x17, 0x09, 0x10, 0x32, 0xec, 0x42,
  0x28, 0xcb, 0x4a, 0xde, 0x12, 0x3a, 0x03, 0x07, 0xd7, 0x15, 0xce, 0xd3,
  0xfe, 0x4f, 0xec, 0xfe, 0xe9, 0xcb, 0x2e, 0xeb, 0x08, 0x02, 0x03, 0x07,
  0x0d, 0x17, 0x26, 0x41, 0xe5, 0x30, 0xd3, 0x19, 0x33, 0x25, 0xe7, 0xb4,
  0xdf, 0xe4, 0x2b, 0xf5, 0xb4, 0xf7, 0x0e, 0xfe, 0xc3, 0x0d, 0xe6, 0x49,
  0x0e, 0xaa, 0x11, 0xdc, 0x12, 0x1a, 0xe1, 0xdc, 0xd2, 0x45, 0xd7, 0x1c,
  0xe4, 0xdb, 0x9e, 0x31, 0x0a, 0x81, 0x34, 0xcf, 0x2a, 0xc7, 0x00, 0x04,
  0xc3, 0x07, 0x08, 0xd1, 0x1e, 0xed, 0x35, 0x07, 0xf1, 0xde, 0x14, 0x0e,
  0x20, 0xdb, 0xfe, 0xf2, 0xc5, 0x01, 0x3f, 0xf8, 0xee, 0x16, 0xe0, 0x0c,
  0xfa, 0xec, 0x10, 0xf0, 0x03, 0x01, 0xf0, 0x05, 0xf0, 0xfe, 0x1d, 0x22,
  0xea, 0x18, 0x29, 0x16, 0x13, 0xc5, 0xcb, 0x08, 0x0d, 0xcd, 0x2e, 0x23,
  0xd1, 0x36, 0x1a, 0x0b, 0x2a, 0xee, 0xf6, 0x36, 0xe0, 0x2b, 0x22, 0x06,
  0xfe, 0x0b, 0x00, 0xb2, 0x1a, 0x10, 0x11, 0xef, 0x03, 0x41, 0xed, 0xda,
  0xe4, 0x7f, 0xeb, 0xe1, 0x11, 0x10, 0xd5, 0xd5, 0x2c, 0xf0, 0xdb, 0xcc,
  0x28, 0xf6, 0x05, 0xee, 0xfc, 0x17, 0x1e, 0xe3, 0x02, 0x37, 0xf5, 0x03,
  0x1d, 0xe1, 0x21, 0xf9, 0xdf, 0xde, 0xfb, 0xed, 0xd6, 0xf1, 0x2a, 0x2e,
  0x2b, 0xe8, 0x25, 0xd2, 0xf9, 0x24, 0xc1, 0x08, 0x0d, 0x1b, 0x0e, 0xe5,
  0x27, 0x1e, 0x28, 0x08, 0x13, 0x13, 0xec, 0x0f, 0xdd, 0x08, 0xf8, 0x09,
  0xdc, 0xfc, 0xb6, 0xff, 0x41, 0xf6, 0xfe, 0x02, 0xfa, 0xeb, 0x11, 0xfa,
  0x0c, 0xfe, 0x23, 0xef, 0xd4, 0xf8, 0x02, 0xf2, 0x0a, 0x27, 0xf6, 0x2b,
  0x0e, 0x21, 0xbf, 0xcb, 0x0e, 0x03, 0xf1, 0xe9, 0x19, 0x40, 0x1a, 0xf4,
  0x40, 0x29, 0x0f, 0xef, 0xf8, 0xf6, 0x06, 0x25, 0x37, 0xe5, 0x16, 0xf9,
  0x2b, 0x28, 0xed, 0x20, 0x00, 0xe2, 0x3d, 0x35, 0xd0, 0xd3, 0x23, 0xef,
  0x25, 0x36, 0xf2, 0xf6, 0x05, 0xa7, 0x1e, 0xe4, 0xb2, 0xb3, 0x20, 0xe9,
  0x0a, 0xf8, 0x1a, 0xf9, 0x05, 0x14, 0xf9, 0x17, 0x0d, 0x3f, 0xf1, 0xe1,
  0xfd, 0xee, 0x02, 0x1a, 0x87, 0x0e, 0xfa, 0xe7, 0xe8, 0x00, 0xee, 0x3a,
  0x07, 0x1a, 0x05, 0xf5, 0xf0, 0x35, 0xd5, 0xf8, 0x16, 0x0f, 0x2a, 0x10,
  0xec, 0x0c, 0x01, 0xfc, 0xfa, 0xdb, 0xf6, 0xed, 0x09, 0x11, 0xe0, 0x81,
  0x19, 0x01, 0xdf, 0xf4, 0xf3, 0x12, 0x8c, 0xf2, 0x10, 0x02, 0xe7, 0x24,
  0x2a, 0x2f, 0x25, 0x96, 0xfa, 0xa8, 0x0f, 0x0e, 0xfb, 0xf5, 0xde, 0x1d,
  0x15, 0xf6, 0xf2, 0xec, 0x24, 0x26, 0x2a, 0xec, 0x10, 0xed, 0x0b, 0x20,
  0x14, 0x08, 0x04, 0xfa, 0x11, 0x18, 0x25, 0xf8, 0xc5, 0xf5, 0x09, 0xcd,
  0x10, 0x17, 0xff, 0xf6, 0x0b, 0x22, 0x93, 0xdf, 0x3b, 0x03, 0xee, 0x01,
  0xf8, 0x04, 0xf2, 0xea, 0x18, 0x25, 0xe1, 0x13, 0xfc, 0x1c, 0xf4, 0xf1,
  0x06, 0x1f, 0x2c, 0x12, 0xc2, 0x25, 0x23, 0xed, 0xef, 0x1f, 0x28, 0xeb,
  0xce, 0xec, 0xe1, 0x08, 0x13, 0xf0, 0xf4, 0xff, 0xc1, 0x18, 0xf3, 0x81,
  0xcc, 0xfc, 0xf2, 0x14, 0xf8, 0x26, 0x1d, 0x02, 0x3a, 0xb5, 0x24, 0xc9,
  0xf5, 0x15, 0xf8, 0xe1, 0x0e, 0x08, 0x13, 0xff, 0x92, 0xe9, 0xfe, 0x0c,
  0x08, 0x30, 0x13, 0x1f, 0xc0, 0x00, 0x27, 0x00, 0xea, 0xf4, 0x2d, 0x09,
  0xc8, 0xc5, 0x4e, 0x13, 0x27, 0x5b, 0xf0, 0x26, 0x19, 0x0f, 0xf9, 0xf4,
  0x55, 0x37, 0x3c, 0x3b, 0x02, 0x1a, 0xe8, 0x08, 0x32, 0xbb, 0x23, 0xf7,
  0xfa, 0xf5, 0x22, 0x16, 0xf6, 0xd2, 0x16, 0x0c, 0x06, 0xec, 0xe5, 0xed,
  0x1c, 0xc8, 0xf2, 0xd6, 0xe7, 0xef, 0x45, 0x12, 0x36, 0xef, 0x0d, 0xfe,
  0x12, 0xeb, 0xef, 0x04, 0x0f, 0xf9, 0xe2, 0x12, 0x26, 0xee, 0xfb, 0x14,
  0xfb, 0xfb, 0x58, 0x00, 0x14, 0xab, 0xd2, 0x22, 0xed, 0xdf, 0xd4, 0x1e,
  0x07, 0xbc, 0x03, 0xef, 0xe1, 0x0d, 0xbe, 0xe7, 0xd2, 0xd5, 0xf3, 0x09,
  0xf2, 0x1e, 0xf5, 0x06, 0x0c, 0x43, 0xf2, 0xfd, 0xbe, 0x2b, 0xbb, 0xfe,
  0xff, 0x22, 0x16, 0x2e, 0x40, 0xe4, 0x22, 0xf8, 0xdc, 0xe8, 0x8a, 0xfa,
  0xdc, 0xf6, 0x3a, 0x13, 0x24, 0xf7, 0x06, 0xe8, 0xde, 0x00, 0xf4, 0x21,
  0x17, 0xda, 0xdd, 0x1c, 0x2d, 0x32, 0xfd, 0x13, 0xee, 0x20, 0xfe, 0xe3,
  0xcf, 0xb8, 0xc4, 0x48, 0xea, 0xbb, 0x23, 0xe0, 0xcf, 0x09, 0xd2, 0x0b,
  0x24, 0xe4, 0x33, 0xd9, 0xb9, 0xfd, 0xfa, 0x10, 0x42, 0xf3, 0x06, 0xe3,
  0x23, 0xfa, 0x08, 0xeb, 0x20, 0x55, 0x3d, 0x07, 0x1b, 0x24, 0x3a, 0xdc,
  0x00, 0xd5, 0x02, 0xe6, 0xca, 0x1c, 0xe2, 0x04, 0xec, 0x33, 0xf1, 0x04,
  0xc1, 0xe8, 0x01, 0xfc, 0x12, 0xfb, 0x2f, 0xe0, 0x00, 0xfc, 0x8c, 0x20,
  0xf3, 0x0e, 0x7f, 0x13, 0x36, 0x45, 0xf7, 0xdd, 0x34, 0xf0, 0xfd, 0xbc,
  0xd4, 0xef, 0x98, 0xee, 0x0e, 0x07, 0x31, 0xde, 0xeb, 0x0f, 0xdd, 0x21,
  0x3b, 0xbe, 0xda, 0xeb, 0xae, 0x24, 0xf0, 0xde, 0xea, 0xf7, 0x15, 0xec,
  0xd8, 0xf7, 0xdd, 0x04, 0xec, 0xcf, 0xf6, 0xe6, 0xb2, 0x1d, 0xb3, 0x30,
  0xdf, 0x00, 0x05, 0x06, 0xf4, 0xf5, 0x20, 0x2e, 0x2a, 0xf9, 0x3e, 0xf9,
  0xd1, 0xd4, 0x01, 0x27, 0x04, 0xe0, 0xe6, 0xe7, 0x22, 0xa1, 0xb8, 0x02,
  0xee, 0xcd, 0x51, 0xfc, 0x0c, 0xfd, 0xfc, 0x16, 0xea, 0x28, 0xc0, 0xff,
  0x0b, 0xe8, 0xdd, 0x1e, 0x2b, 0xdf, 0x15, 0xf8, 0xdd, 0xde, 0xcb, 0x2e,
  0x2a, 0xef, 0x05, 0xdd, 0x32, 0xf3, 0x29, 0x13, 0x06, 0x8c, 0x53, 0x2c,
  0x12, 0x07, 0xf0, 0x1b, 0xfe, 0x2a, 0xe3, 0xf4, 0xf6, 0xbe, 0x1c, 0x07,
  0xe3, 0xef, 0xfd, 0xe7, 0x19, 0xdf, 0x18, 0xfd, 0xd1, 0x37, 0x13, 0xf7,
  0xe4, 0xd3, 0xdf, 0x0a, 0xf5, 0xb9, 0x23, 0x0e, 0x4b, 0xd6, 0x06, 0xf4,
  0x04, 0x35, 0x30, 0x05, 0x19, 0xe4, 0x22, 0x15, 0x20, 0x81, 0x05, 0x05,
  0x0f, 0xe4, 0xd8, 0x05, 0x0e, 0x0b, 0xde, 0xb8, 0xcb, 0x05, 0x07, 0x3c,
  0x05, 0xcb, 0x0f, 0xf8, 0xe0, 0xc4, 0x14, 0x09, 0xd3, 0xea, 0x08, 0xec,
  0xf6, 0xf9, 0x28, 0x62, 0x05, 0xb6, 0x1f, 0x11, 0x2c, 0xe8, 0xfe, 0x17,
  0xe0, 0x2e, 0xe9, 0x1d, 0xec, 0x0c, 0x08, 0xf0, 0xf3, 0x4d, 0x1f, 0xf1,
  0x02, 0x0a, 0x32, 0xd2, 0x13, 0x74, 0x66, 0xbb, 0xd8, 0x33, 0x05, 0xf0,
  0x7f, 0x52, 0xec, 0x1f, 0xff, 0x09, 0xfb, 0x1c, 0xfe, 0xf1, 0x35, 0xff,
  0x0d, 0xfe, 0x17, 0xe8, 0x22, 0xde, 0xe5, 0x13, 0xed, 0xfe, 0x0f, 0x20,
  0xe6, 0xf0, 0x35, 0xd9, 0xee, 0xad, 0x04, 0xc5, 0xc4, 0x49, 0xfd, 0x00,
  0x12, 0x07, 0xe8, 0x03, 0xf1, 0xc2, 0x4a, 0xdc, 0x2d, 0x11, 0x28, 0x29,
  0x3c, 0x08, 0x45, 0xea, 0xfe, 0x23, 0xdd, 0x34, 0xd6, 0xf6, 0x1c, 0x15,
  0xeb, 0x08, 0xef, 0xff, 0x56, 0xec, 0x3e, 0xe1, 0xec, 0x11, 0x25, 0x11,
  0x02, 0xff, 0x08, 0x04, 0xcf, 0xc3, 0x27, 0xff, 0xf6, 0x39, 0xf6, 0x54,
  0x16, 0x65, 0xfa, 0x01, 0x18, 0xe2, 0x5a, 0x23, 0x16, 0xeb, 0xe4, 0x18,
  0x44, 0xc9, 0xe8, 0xe3, 0x25, 0x1f, 0x19, 0x08, 0x4a, 0x1c, 0x50, 0xfb,
  0x28, 0xe3, 0xf2, 0xfc, 0x1b, 0x1d, 0x22, 0xf0, 0xff, 0x23, 0x71, 0x42,
  0x41, 0x18, 0x3f, 0x1b, 0x1b, 0xf6, 0xea, 0xd9, 0xfb, 0x14, 0xfe, 0xc9,
  0x2a, 0xe4, 0xe7, 0xcd, 0x17, 0x27, 0x47, 0x27, 0x15, 0x40, 0x2e, 0xe9,
  0x25, 0x25, 0xd3, 0xfc, 0x79, 0x10, 0xf2, 0xfb, 0xf3, 0x19, 0x2b, 0x2f,
  0x3f, 0x13, 0x36, 0x0c, 0xe5, 0x2c, 0x1a, 0xc8, 0xef, 0xfc, 0x76, 0xf8,
  0xef, 0x18, 0xff, 0x04, 0xec, 0x18, 0x13, 0xff, 0xf4, 0x14, 0x01, 0xfe,
  0x07, 0xfd, 0xf3, 0xfa, 0x11, 0x09, 0x14, 0xf7, 0x94, 0xc6, 0xcc, 0xd8,
  0x2b, 0x17, 0x4d, 0x11, 0x26, 0x13, 0xf3, 0x19, 0xf7, 0x0d, 0x35, 0xcc,
  0xf9, 0x05, 0x11, 0xfe, 0x0c, 0x08, 0x3b, 0x92, 0x23, 0xd9, 0x24, 0xdc,
  0x13, 0x02, 0x32, 0x48, 0xee, 0xd9, 0x31, 0xf3, 0x94, 0xf7, 0x5a, 0xf9,
  0x19, 0x1c, 0xcb, 0x43, 0x27, 0x0f, 0x16, 0xed, 0x05, 0x96, 0x05, 0x02,
  0xa2, 0xcf, 0xef, 0xd7, 0x2b, 0x12, 0x47, 0x0f, 0x47, 0x1e, 0x0f, 0xde,
  0xf0, 0xa2, 0x02, 0x19, 0xf9, 0x45, 0x0b, 0xdb, 0x51, 0x2e, 0x54, 0x2e,
  0x22, 0xde, 0x29, 0x0f, 0x81, 0xb6, 0x0e, 0xf7, 0xd3, 0xd3, 0xf4, 0x05,
  0x1c, 0x19, 0xf2, 0x22, 0xe8, 0x25, 0xdc, 0x04, 0xf8, 0x05, 0xda, 0x02,
  0xe4, 0xac, 0x27, 0x22, 0x19, 0xd2, 0x21, 0xdc, 0x09, 0x19, 0xcb, 0x30,
  0xc1, 0xf7, 0x1d, 0xf3, 0x13, 0xf1, 0xe7, 0xf8, 0x1a, 0x07, 0xcf, 0xeb,
  0x11, 0x2d, 0xd8, 0x0e, 0x01, 0xfd, 0x06, 0xfb, 0x0c, 0x32, 0x1b, 0xe4,
  0xb4, 0xf8, 0x97, 0x01, 0xd1, 0x0a, 0x42, 0xf7, 0x03, 0x01, 0x22, 0xfc,
  0x20, 0x30, 0x0d, 0x11, 0xdb, 0xf9, 0x81, 0xf3, 0xfb, 0x1b, 0x20, 0xc5,
  0xfe, 0x06, 0x02, 0x1f, 0xf1, 0x16, 0xd0, 0xf3, 0xed, 0x21, 0xb5, 0x15,
  0x03, 0x18, 0x19, 0xff, 0x02, 0x05, 0xde, 0xf4, 0xf5, 0xe7, 0x0f, 0x16,
  0x0c, 0x27, 0x19, 0x0a, 0xff, 0x13, 0xd3, 0x19, 0xd5, 0xf1, 0xfb, 0xfe,
  0x08, 0x24, 0x08, 0x04, 0x1d, 0x11, 0x04, 0x1b, 0xf4, 0xfa, 0xed, 0xe6,
  0x02, 0xdb, 0xdb, 0xf3, 0xe0, 0x31, 0xf9, 0xf1, 0xeb, 0xef, 0xd8, 0xf1,
  0x1d, 0xef, 0x1e, 0xfa, 0x0a, 0x04, 0xd1, 0x09, 0xef, 0x18, 0xb8, 0x0a,
  0xa9, 0x07, 0x2b, 0xef, 0x4d, 0xab, 0xf9, 0x08, 0xb1, 0xf3, 0x90, 0x10,
  0xec, 0xf3, 0xee, 0xb7, 0xc6, 0x86, 0xd3, 0x81, 0x32, 0xfd, 0xfb, 0xcc,
  0xe8, 0x00, 0xec, 0xb7, 0x1b, 0xd1, 0xbb, 0xbf, 0xdf, 0xc4, 0xe5, 0xf5,
  0xc6, 0x01, 0xc5, 0xd0, 0xac, 0xa1, 0xd9, 0x88, 0x84, 0xd0, 0x42, 0xe4,
  0xae, 0xd5, 0xbe, 0xaa, 0xaa, 0xe7, 0x0f, 0x97, 0xe3, 0x2c, 0xe7, 0xcf,
  0x1d, 0x11, 0xb8, 0xa0, 0xe7, 0xfd, 0xd7, 0xe9, 0xd3, 0xab, 0xe6, 0x2c,
  0xee, 0x13, 0xa7, 0xde, 0x0e, 0x00, 0xff, 0xa7, 0xb9, 0xc3, 0x9d, 0xd3,
  0xa1, 0xb5, 0x31, 0xeb, 0xd9, 0x24, 0x07, 0xdb, 0x23, 0x07, 0x31, 0xf9,
  0xd8, 0xba, 0x25, 0xeb, 0xf1, 0xb6, 0x18, 0x06, 0xfc, 0xff, 0xf5, 0xf3,
  0xd1, 0x28, 0x07, 0xd9, 0xb1, 0xca, 0xb2, 0x2e, 0xee, 0xab, 0xed, 0x87,
  0x34, 0x1b, 0xca, 0xf0, 0xa7, 0xe1, 0xb8, 0xc1, 0x46, 0xae, 0x1f, 0xa0,
  0x00, 0xac, 0x07, 0x04, 0xd9, 0xb5, 0xf8, 0xab, 0xfa, 0x00, 0xe3, 0x17,
  0x93, 0x1d, 0x15, 0xb7, 0x06, 0xb4, 0x03, 0xe9, 0xf0, 0x0e, 0xf3, 0xef,
  0xf6, 0x37, 0x23, 0x12, 0x33, 0x29, 0xb7, 0x41, 0x07, 0x0e, 0x01, 0x04,
  0x50, 0xfb, 0x31, 0xcb, 0x06, 0x9d, 0xd1, 0x36, 0x35, 0x32, 0xef, 0x04,
  0xfb, 0xdc, 0x14, 0xd2, 0xb0, 0xcd, 0x00, 0x81, 0x10, 0x20, 0xdc, 0x0b,
  0x36, 0xff, 0xe5, 0x84, 0xe7, 0xed, 0xda, 0xf5, 0xe1, 0xc5, 0x88, 0x1c,
  0x2b, 0x1c, 0xe4, 0xdf, 0xf1, 0x1d, 0xff, 0x1e, 0xd0, 0xb2, 0xe8, 0x1b,
  0x13, 0xf4, 0x2c, 0xe4, 0x36, 0xf1, 0xf3, 0xed, 0xe6, 0x06, 0x27, 0x09,
  0xcd, 0xfe, 0x2a, 0x36, 0xd8, 0x02, 0x2e, 0xf5, 0xe7, 0x1e, 0x11, 0x2e,
  0x21, 0x1f, 0x4f, 0x03, 0x00, 0x02, 0x5c, 0x1b, 0x1e, 0x05, 0xa7, 0x00,
  0xf0, 0xdf, 0x17, 0xff, 0x21, 0xc8, 0x11, 0x13, 0x11, 0xe0, 0x11, 0x06,
  0x37, 0xac, 0x04, 0x19, 0x0b, 0x1a, 0xfd, 0xf6, 0x48, 0xf6, 0x4f, 0x2d,
  0x27, 0x42, 0x18, 0x1e, 0xc4, 0xc6, 0xfe, 0xc5, 0xcc, 0x3f, 0x4f, 0xde,
  0xfd, 0xce, 0x11, 0xa0, 0x2e, 0x65, 0x7b, 0xb7, 0xc3, 0x31, 0x2b, 0x03,
  0x5a, 0x69, 0xa8, 0xff, 0x10, 0xf9, 0x03, 0x04, 0xf9, 0xfb, 0x4a, 0x13,
  0x0d, 0x0a, 0x4c, 0x1a, 0x32, 0xea, 0xcf, 0xf0, 0xf7, 0x26, 0x35, 0x22,
  0xe3, 0xf5, 0x48, 0xe2, 0x15, 0xcd, 0x0d, 0xc2, 0xd5, 0x51, 0x03, 0x07,
  0x12, 0xff, 0x08, 0xfd, 0xf5, 0xf4, 0x50, 0xd6, 0x0d, 0x0c, 0x3e, 0x22,
  0x56, 0x10, 0x54, 0xd9, 0xcc, 0x5b, 0xcb, 0x3e, 0xeb, 0x10, 0x5d, 0x2e,
  0xec, 0x10, 0x07, 0x1a, 0x7c, 0x04, 0x39, 0xe9, 0x0f, 0x0a, 0x26, 0x0b,
  0xfc, 0x1c, 0x38, 0x18, 0xcb, 0xf7, 0x5f, 0x03, 0xe9, 0x1f, 0x1e, 0x48,
  0x11, 0x7f, 0xe9, 0x24, 0x2c, 0x12, 0x65, 0x33, 0x2a, 0xdf, 0xf5, 0x33,
  0x3f, 0xef, 0xe8, 0xf9, 0x21, 0x41, 0x31, 0x14, 0x54, 0x0f, 0x6f, 0xf7,
  0x5a, 0x04, 0x06, 0xe4, 0x0c, 0x46, 0x44, 0xdc, 0x0f, 0x2b, 0x72, 0x3c,
  0x40, 0x18, 0x50, 0x06, 0x46, 0x21, 0x06, 0xde, 0xd7, 0x20, 0x9c, 0xf5,
  0x8e, 0xff, 0x14, 0x00, 0xf6, 0xec, 0x18, 0x1c, 0x0c, 0xaa, 0x20, 0x1a,
  0x00, 0x8f, 0xa5, 0x41, 0x49, 0x06, 0x00, 0x10, 0xf9, 0xbe, 0x17, 0xfc,
  0xd2, 0xfa, 0xd3, 0xd7, 0xae, 0xc4, 0x09, 0xe3, 0xf2, 0x26, 0xe6, 0xe6,
  0x04, 0xfd, 0x2b, 0x07, 0xda, 0x1f, 0xcd, 0xd3, 0xd0, 0x17, 0x05, 0xdb,
  0xec, 0xf7, 0x79, 0x0f, 0xe9, 0xf2, 0xf7, 0x26, 0x17, 0xc2, 0x1b, 0xfa,
  0xd7, 0x91, 0xa2, 0xe7, 0xc5, 0x36, 0xf4, 0xf9, 0xda, 0x3e, 0x02, 0x1d,
  0x0a, 0xf3, 0x14, 0xe9, 0x9e, 0x2c, 0xee, 0x15, 0x0d, 0x08, 0x9f, 0x12,
  0xf3, 0xfa, 0xd9, 0xb7, 0xcf, 0xd5, 0xfa, 0x09, 0x8a, 0x3d, 0xe5, 0x20,
  0xae, 0xcc, 0x7f, 0x10, 0x1e, 0x0e, 0xff, 0x18, 0x21, 0xbe, 0x30, 0xfb,
  0x37, 0x28, 0x19, 0x0c, 0x13, 0x23, 0xf7, 0xd5, 0xf8, 0x05, 0xec, 0x3e,
  0xec, 0xc6, 0xd5, 0x19, 0xf8, 0x39, 0x17, 0x04, 0xf4, 0xf3, 0xd8, 0xfe,
  0x17, 0x63, 0x3d, 0x3b, 0x39, 0xbd, 0x01, 0x24, 0x14, 0x01, 0xee, 0xfc,
  0x06, 0xd6, 0x37, 0x08, 0x16, 0xeb, 0xe0, 0x2d, 0x16, 0xfa, 0xe1, 0x1c,
  0x05, 0x0f, 0x0c, 0x07, 0x35, 0x05, 0x12, 0x0c, 0xf3, 0x32, 0xae, 0xe4,
  0x1b, 0xb8, 0xd4, 0xd5, 0x26, 0xb3, 0x04, 0x0d, 0x11, 0x0b, 0x14, 0x1c,
  0xf7, 0x1e, 0xf2, 0xdf, 0xf1, 0xcb, 0xde, 0x0b, 0x0c, 0xc8, 0xea, 0x2d,
  0xff, 0xcc, 0xff, 0x14, 0x09, 0x22, 0xec, 0xff, 0x1b, 0x07, 0x17, 0x20,
  0x15, 0x0f, 0x03, 0xea, 0xdf, 0x0e, 0xef, 0xdc, 0xe4, 0x01, 0x23, 0xd9,
  0xf3, 0x15, 0xfe, 0x10, 0x0e, 0xa8, 0xff, 0x26, 0xad, 0xf5, 0x21, 0xf3,
  0xe3, 0xe3, 0xdd, 0xf3, 0xcb, 0xdc, 0x2f, 0x07, 0x29, 0x9d, 0xa0, 0xd0,
  0xf6, 0x0a, 0x2d, 0x26, 0x04, 0x04, 0xf7, 0x12, 0xff, 0xef, 0xdd, 0x21,
  0xf4, 0xd3, 0xf1, 0xe5, 0xd0, 0xb3, 0xf3, 0x1c, 0x13, 0x03, 0x08, 0xd6,
  0x10, 0xa2, 0xae, 0x00, 0xff, 0x81, 0x17, 0xee, 0xdf, 0xc0, 0x47, 0xff,
  0x16, 0xf2, 0x40, 0xb0, 0xfd, 0xe1, 0xbf, 0x2f, 0x25, 0xe1, 0x10, 0xe1,
  0xba, 0xcb, 0x0b, 0x10, 0xed, 0xf0, 0xfc, 0xc7, 0xe3, 0x06, 0xaa, 0x1c,
  0x13, 0xd9, 0x4a, 0xef, 0x81, 0xf2, 0x0e, 0x06, 0xf4, 0x0d, 0xdc, 0x08,
  0x26, 0xab, 0x19, 0xf0, 0xed, 0x1c, 0xd9, 0xf6, 0xd7, 0x16, 0x0e, 0xed,
  0x20, 0xee, 0xd9, 0x0e, 0xe8, 0xe4, 0x03, 0xea, 0x15, 0xd5, 0xf2, 0xfe,
  0xb2, 0xe8, 0x0f, 0x07, 0xe0, 0x1c, 0xc3, 0xed, 0xe6, 0x0a, 0x09, 0x0f,
  0x12, 0x1d, 0x28, 0xdf, 0xce, 0x0f, 0xfe, 0x30, 0xee, 0xf7, 0xfd, 0xf1,
  0xfc, 0xcc, 0xe3, 0x08, 0x10, 0xd7, 0x02, 0xdb, 0x00, 0x0c, 0xe3, 0x1f,
  0x0f, 0x01, 0x20, 0xf9, 0x2c, 0xee, 0x1b, 0xf4, 0x0b, 0xeb, 0x18, 0xdf,
  0x19, 0xe7, 0xc0, 0xed, 0x02, 0x18, 0xfc, 0x26, 0xd2, 0x02, 0x34, 0xf4,
  0x02, 0xd7, 0xd4, 0xe8, 0xe3, 0x15, 0xde, 0xe9, 0xf6, 0xe6, 0x0a, 0x12,
  0xf6, 0xf2, 0x02, 0xf5, 0xe9, 0x2d, 0xe7, 0xdc, 0x0e, 0x00, 0x2c, 0xfa,
  0x1b, 0x02, 0x08, 0xf9, 0x04, 0xde, 0xf9, 0xe3, 0xe9, 0x10, 0x0f, 0x02,
  0x06, 0x06, 0xf1, 0x23, 0x0c, 0x1d, 0xfa, 0xfc, 0xea, 0x23, 0x11, 0xdb,
  0xf2, 0x1f, 0xfd, 0x14, 0x22, 0x09, 0xfb, 0xf1, 0x01, 0xef, 0x17, 0xfc,
  0xf0, 0x11, 0xd9, 0xdb, 0xd9, 0xe0, 0xcc, 0xd1, 0xeb, 0x06, 0xe4, 0xf0,
  0xf6, 0x01, 0xff, 0xef, 0x29, 0x15, 0x06, 0xe5, 0x16, 0x05, 0xf2, 0x13,
  0xd6, 0xf0, 0xf8, 0x07, 0x07, 0x37, 0xd6, 0x04, 0xf1, 0x10, 0x0d, 0xec,
  0xdc, 0xdf, 0x0c, 0x1d, 0x17, 0xfc, 0x25, 0xf7, 0xf5, 0xde, 0xf8, 0x12,
  0x09, 0xf3, 0xfa, 0xf8, 0xf0, 0x01, 0xf5, 0xfd, 0x12, 0xf2, 0x40, 0xf6,
  0x0c, 0xfd, 0x25, 0xf3, 0x20, 0xde, 0xf7, 0xee, 0x08, 0x03, 0x18, 0x0d,
  0x12, 0x0d, 0x0a, 0x27, 0x1f, 0xec, 0x0d, 0xe7, 0xfc, 0xf6, 0x01, 0xd7,
  0xf5, 0x05, 0xde, 0xeb, 0xec, 0xff, 0xfa, 0xf8, 0x2a, 0xdf, 0x40, 0x02,
  0x15, 0x25, 0x22, 0xfa, 0xe7, 0xbc, 0xd8, 0xfb, 0x0c, 0x06, 0x16, 0x1a,
  0xee, 0xe8, 0x4b, 0xf4, 0xd3, 0xfe, 0x13, 0x81, 0x3b, 0x26, 0x0d, 0x05,
  0x06, 0x09, 0xe3, 0x4b, 0xc9, 0xc5, 0xef, 0xe7, 0x28, 0x15, 0xd1, 0xd9,
  0x20, 0x02, 0x10, 0xf1, 0xd1, 0xec, 0x15, 0xed, 0xf1, 0xc8, 0x33, 0x13,
  0x03, 0x0a, 0xe7, 0x1a, 0xe5, 0x21, 0x28, 0x0f, 0xf0, 0x12, 0x25, 0xfa,
  0x28, 0x09, 0xdb, 0x30, 0x2e, 0x0e, 0xc2, 0xe5, 0x0e, 0x93, 0x23, 0xf3,
  0x12, 0x0b, 0xcf, 0x26, 0xad, 0xc8, 0xf9, 0xc8, 0xd8, 0x87, 0xd9, 0xf2,
  0x06, 0x0b, 0x2f, 0xf4, 0xe1, 0xf7, 0xee, 0x15, 0xf3, 0xdf, 0xfa, 0xf1,
  0x43, 0xab, 0x0e, 0xe0, 0x14, 0x1d, 0x1d, 0xe6, 0x2a, 0x07, 0x19, 0xf9,
  0xe1, 0xca, 0xdf, 0xd8, 0x61, 0x81, 0x5a, 0xfe, 0xfb, 0xbf, 0x04, 0xe5,
  0x41, 0xfb, 0x9c, 0xda, 0xeb, 0x0a, 0x2d, 0xb7, 0xfd, 0x0c, 0x07, 0x07,
  0xf4, 0x08, 0xda, 0x10, 0x28, 0xec, 0xc5, 0xf9, 0xdc, 0x11, 0xfc, 0xd6,
  0xd7, 0xd4, 0xfa, 0x3f, 0xed, 0x50, 0xd3, 0xf3, 0x28, 0xf1, 0xf3, 0x05,
  0xe9, 0x45, 0xea, 0xe3, 0x04, 0xbe, 0xfb, 0x00, 0x47, 0xf3, 0xe7, 0xd7,
  0x07, 0x0e, 0x15, 0xd8, 0x29, 0xf5, 0x9c, 0x81, 0xf9, 0x18, 0xdb, 0xe6,
  0xff, 0x04, 0x0a, 0xca, 0xed, 0xcd, 0xb7, 0x09, 0xd6, 0xea, 0xbb, 0x17,
  0x3a, 0xcc, 0xe5, 0x0f, 0x41, 0xa7, 0x38, 0xaf, 0xb1, 0xca, 0xaf, 0x24,
  0x06, 0xe7, 0x22, 0xc7, 0xdd, 0xa8, 0xcf, 0x1e, 0x0b, 0xd1, 0x2c, 0x21,
  0xca, 0x01, 0xdf, 0xf1, 0xf8, 0x64, 0xcf, 0xd2, 0xe2, 0x1d, 0xf1, 0xd2,
  0x19, 0x0c, 0xbc, 0xe0, 0x1e, 0xdb, 0xf0, 0xf5, 0xef, 0x2f, 0xd6, 0x27,
  0xc8, 0xfe, 0xca, 0xf9, 0x3a, 0xba, 0xf5, 0xd7, 0xff, 0xbf, 0xfb, 0xfc,
  0x09, 0x33, 0x31, 0x16, 0xe6, 0xfc, 0xf4, 0x26, 0xf4, 0xd9, 0x3d, 0x14,
  0x1f, 0x32, 0xc2, 0x2e, 0x0c, 0x14, 0xf1, 0x0a, 0x02, 0x32, 0xe0, 0x13,
  0x55, 0xf5, 0xf2, 0xe9, 0x0a, 0xdb, 0xf8, 0xc1, 0x24, 0x07, 0x1d, 0xc9,
  0xf4, 0x1a, 0xeb, 0x28, 0xf8, 0xf3, 0x0e, 0x1e, 0xff, 0xcc, 0x14, 0xea,
  0xc2, 0x0d, 0x15, 0x0d, 0xcb, 0x47, 0xd1, 0x27, 0x13, 0xa5, 0x19, 0xde,
  0xdf, 0x08, 0xe4, 0x22, 0xa0, 0x95, 0xbe, 0xa6, 0xe1, 0xf1, 0x1a, 0x1f,
  0x2a, 0xc1, 0x15, 0xff, 0xf9, 0xb5, 0xdc, 0x30, 0xbc, 0xf2, 0xe5, 0xf3,
  0xc3, 0xc9, 0x2b, 0xe9, 0x1f, 0xee, 0xff, 0xf3, 0xfb, 0xb0, 0x2f, 0x23,
  0xc8, 0xa9, 0x13, 0x36, 0xe4, 0x81, 0x06, 0xfc, 0x18, 0x12, 0xa9, 0x24,
  0xd8, 0x21, 0xbd, 0xbd, 0x40, 0x25, 0xfa, 0xb6, 0xbe, 0x1e, 0x25, 0xd7,
  0x04, 0xfc, 0xdd, 0xb2, 0x16, 0xd9, 0x07, 0xc3, 0xf7, 0x3b, 0x2a, 0x0e,
  0xe8, 0x2b, 0x0c, 0xe8, 0xe9, 0xd8, 0xbd, 0x30, 0xdf, 0xf6, 0x11, 0x0d,
  0xed, 0xfc, 0xc7, 0xd9, 0x01, 0x35, 0x2b, 0x21, 0xea, 0x27, 0x0f, 0xee,
  0x1e, 0xea, 0x2d, 0xb4, 0x17, 0x0b, 0xda, 0x10, 0x25, 0x4d, 0xac, 0xdd,
  0xd9, 0xd6, 0xb4, 0xf3, 0x60, 0xff, 0xf6, 0xe1, 0xf8, 0xf4, 0x21, 0x36,
  0xcd, 0x53, 0x2a, 0x21, 0xca, 0x09, 0x3f, 0x1a, 0xee, 0xac, 0x2c, 0x34,
  0xe5, 0xcd, 0xec, 0x1f, 0xc1, 0x3e, 0xec, 0xe8, 0x33, 0xea, 0xef, 0xea,
  0xf9, 0x10, 0x15, 0xf7, 0x11, 0xff, 0xef, 0xe9, 0xf9, 0x1b, 0xfa, 0x08,
  0x31, 0xcc, 0x08, 0xec, 0xed, 0x00, 0xfa, 0x13, 0xee, 0x44, 0xef, 0xe3,
  0xe9, 0x18, 0xe9, 0x2d, 0x0f, 0x81, 0x03, 0xcc, 0xcd, 0xec, 0x03, 0x18,
  0xf2, 0x29, 0xc7, 0xde, 0x0e, 0x0d, 0xec, 0x08, 0xfb, 0xe1, 0xea, 0xf7,
  0xe7, 0xfe, 0xfb, 0xf5, 0xd2, 0xfa, 0x00, 0xf6, 0x0c, 0x0c, 0x3c, 0x1f,
  0x10, 0x00, 0xc2, 0x1e, 0xeb, 0xff, 0xdc, 0x05, 0x15, 0x00, 0xdc, 0xe9,
  0xd8, 0xe4, 0x01, 0x25, 0x06, 0x9b, 0x53, 0x05, 0x07, 0x11, 0x0d, 0x08,
  0xfb, 0x1c, 0xdd, 0xea, 0x11, 0xf5, 0xfc, 0x21, 0x21, 0xe9, 0xf8, 0x0b,
  0x01, 0xfb, 0x3b, 0xd5, 0xf1, 0x2c, 0x14, 0xf6, 0x05, 0x10, 0xfd, 0x03,
  0x2d, 0xdd, 0x17, 0xd4, 0x13, 0xf9, 0x15, 0x04, 0x13, 0x2d, 0xec, 0xf0,
  0xf5, 0x02, 0x06, 0xea, 0x1b, 0xf0, 0x04, 0x02, 0xec, 0x0d, 0x09, 0x08,
  0xdf, 0x0d, 0x46, 0xf5, 0xe2, 0x11, 0x01, 0x0d, 0xf1, 0x33, 0x1c, 0x2c,
  0x0b, 0x46, 0xd5, 0x0a, 0x1c, 0xf6, 0x29, 0xe8, 0x13, 0x28, 0x0a, 0xfc,
  0xec, 0x33, 0xd2, 0x0e, 0xe8, 0xfe, 0x2d, 0x3b, 0xec, 0xf8, 0xe6, 0xce,
  0xfa, 0xf9, 0xdc, 0x10, 0xf7, 0xa9, 0x44, 0xe2, 0x81, 0xea, 0x19, 0x22,
  0xea, 0x0b, 0xe7, 0x03, 0xdc, 0xaa, 0xd2, 0xfa, 0x0a, 0x41, 0xd4, 0x01,
  0x0c, 0x13, 0x15, 0xe0, 0x17, 0xfd, 0xd8, 0x33, 0xe1, 0x09, 0xc7, 0x06,
  0xec, 0xc4, 0x0d, 0xe2, 0xe7, 0xcf, 0x3e, 0xac, 0x03, 0xde, 0xd6, 0x0d,
  0xe2, 0xa4, 0x07, 0x40, 0xe5, 0x83, 0xe9, 0xb0, 0xb7, 0x03, 0xea, 0x12,
  0xd9, 0xe9, 0xef, 0xd5, 0x8a, 0xd8, 0x03, 0x45, 0xd4, 0x1f, 0xfc, 0x0e,
  0xf0, 0x10, 0x30, 0x24, 0x1b, 0xef, 0xe3, 0x3e, 0xe7, 0x25, 0xf5, 0xf3,
  0x32, 0xd9, 0x1b, 0x00, 0xa6, 0xe0, 0xc7, 0xf4, 0xe1, 0x0d, 0x0e, 0xb7,
  0x15, 0x15, 0xff, 0x17, 0x1b, 0xe4, 0xb6, 0x8e, 0xe4, 0xde, 0xc2, 0xdc,
  0xef, 0x20, 0xe4, 0xf5, 0x13, 0x3f, 0x1a, 0xf1, 0xa1, 0x35, 0xeb, 0x11,
  0xf2, 0x0c, 0x46, 0xf9, 0x24, 0x27, 0x19, 0x35, 0x19, 0x43, 0xc5, 0xc2,
  0x0e, 0x18, 0xb3, 0x15, 0x08, 0x01, 0xd5, 0xe7, 0x06, 0x08, 0x2a, 0x12,
  0x2b, 0x1d, 0x02, 0x99, 0x16, 0x15, 0x11, 0x2a, 0xf0, 0xf4, 0x2c, 0xf8,
  0xf9, 0x17, 0x10, 0x30, 0x2a, 0x1e, 0xcc, 0x9f, 0x14, 0xf3, 0xcc, 0xed,
  0x0f, 0xf0, 0xf4, 0x20, 0xd3, 0xd3, 0xf8, 0xfd, 0x09, 0xd8, 0xd1, 0x35,
  0x0f, 0xdf, 0x7f, 0xd3, 0xeb, 0x29, 0xef, 0x10, 0xd7, 0xd6, 0xda, 0x08,
  0x26, 0xd7, 0xc8, 0xfe, 0x1d, 0x24, 0x39, 0xe6, 0xfc, 0xf7, 0x1b, 0x19,
  0xee, 0xe1, 0x2f, 0xf1, 0xe8, 0xa6, 0xfb, 0x06, 0xea, 0x31, 0xd8, 0x0f,
  0x08, 0xef, 0xef, 0x05, 0x07, 0x14, 0xbd, 0xed, 0xe1, 0x0b, 0x04, 0x1f,
  0x2f, 0xfc, 0xdb, 0xdf, 0x1a, 0xc3, 0x34, 0xeb, 0x0f, 0x47, 0xb7, 0x06,
  0x91, 0xe3, 0xfa, 0x39, 0xdf, 0xac, 0xac, 0xf4, 0xb9, 0xc0, 0xe4, 0x25,
  0xcb, 0xe8, 0xcb, 0xbe, 0xd4, 0x19, 0x1e, 0x35, 0xe8, 0x51, 0xfe, 0x47,
  0xee, 0x29, 0xf2, 0x1c, 0x21, 0xd5, 0xc9, 0x22, 0x3c, 0x29, 0x03, 0xd5,
  0x26, 0xe1, 0xd5, 0x0e, 0xa5, 0x08, 0x29, 0xfe, 0xff, 0x2d, 0x0e, 0x28,
  0xfe, 0xf0, 0xf2, 0x10, 0x10, 0x04, 0xf6, 0xb6, 0x00, 0x1b, 0xdd, 0xf3,
  0xec, 0x2a, 0x2b, 0xd8, 0x2a, 0xc5, 0xb4, 0x1f, 0xe3, 0x05, 0xc2, 0xc2,
  0xf1, 0x27, 0xff, 0xd5, 0xea, 0xe1, 0x06, 0x2a, 0x13, 0xfd, 0x2a, 0xf0,
  0xa7, 0x0c, 0xc1, 0xd7, 0x2b, 0xde, 0xef, 0xfa, 0xf7, 0x12, 0xe5, 0xf8,
  0xfb, 0xf5, 0xd2, 0x0f, 0x37, 0xf9, 0xf0, 0xd0, 0x0b, 0xed, 0x26, 0xf7,
  0xb8, 0x47, 0x7f, 0x1a, 0x2e, 0xd6, 0xc9, 0x26, 0xcc, 0xce, 0xe7, 0x29,
  0x2f, 0x54, 0xe7, 0x27, 0xbf, 0xe1, 0x07, 0x0f, 0xfa, 0x0c, 0x12, 0xc1,
  0xea, 0x9e, 0xb3, 0x26, 0x2f, 0x23, 0x2b, 0x18, 0xd0, 0xe6, 0x2a, 0x24,
  0xd4, 0xe5, 0xf2, 0xe8, 0x2a, 0xb8, 0xfb, 0x17, 0x22, 0xdc, 0x0d, 0xff,
  0x0e, 0x05, 0x11, 0xf5, 0xbf, 0xf3, 0xd6, 0xfe, 0x06, 0x03, 0x1a, 0x08,
  0xc5, 0xe1, 0xf7, 0x05, 0x13, 0x07, 0xe7, 0xee, 0x20, 0x24, 0x05, 0xfd,
  0x02, 0x2f, 0x42, 0x0f, 0xd8, 0xd2, 0xff, 0xe0, 0xec, 0x1d, 0x26, 0x09,
  0xfa, 0xdb, 0x11, 0x0d, 0x18, 0xf7, 0x1e, 0xdd, 0xe3, 0xe8, 0x44, 0xe7,
  0xfe, 0xd2, 0xf7, 0x0e, 0xe7, 0xf1, 0x17, 0x01, 0x13, 0xeb, 0x01, 0xec,
  0xa6, 0xf1, 0xff, 0xef, 0xf0, 0x09, 0xef, 0xe8, 0x0a, 0x01, 0xf6, 0x0b,
  0xf6, 0x05, 0x0c, 0x18, 0xf5, 0xfc, 0xf7, 0x11, 0xd7, 0xf1, 0xed, 0xf4,
  0x15, 0xff, 0x14, 0x09, 0xdd, 0x01, 0x07, 0xe5, 0xf5, 0xbd, 0x00, 0x35,
  0xfe, 0xf0, 0xe4, 0xf2, 0xec, 0x0c, 0x1d, 0x16, 0x1b, 0x08, 0x09, 0xd3,
  0xea, 0x16, 0xf4, 0xcf, 0x0b, 0x14, 0xdd, 0xec, 0x13, 0x13, 0xe6, 0x03,
  0xe3, 0xf8, 0xe2, 0xda, 0x81, 0xe5, 0xed, 0xef, 0xf7, 0xf5, 0x11, 0xea,
  0x0f, 0x25, 0x07, 0x0b, 0xdd, 0x1e, 0x23, 0x0f, 0xc8, 0xcc, 0xcf, 0x12,
  0x10, 0xee, 0xc9, 0xdb, 0x28, 0x12, 0xe7, 0x19, 0xfd, 0xf4, 0x06, 0xfe,
  0x10, 0xfe, 0x00, 0x22, 0xf9, 0x18, 0xc7, 0x04, 0x30, 0xd1, 0xfc, 0xfe,
  0x01, 0x12, 0x50, 0xf8, 0xf6, 0x11, 0xe5, 0x11, 0xf6, 0x02, 0xca, 0xe9,
  0xff, 0xf3, 0xf8, 0xf3, 0xe3, 0xfd, 0x16, 0x02, 0xe9, 0x1c, 0xf1, 0x08,
  0xfe, 0xf1, 0x94, 0x03, 0xed, 0xca, 0xef, 0x0b, 0xf9, 0x0d, 0xd3, 0x2f,
  0xf1, 0xf6, 0x09, 0xe1, 0xfe, 0x4c, 0x81, 0x0c, 0xff, 0xec, 0x03, 0xf9,
  0xee, 0x44, 0xac, 0x24, 0x12, 0xf9, 0x00, 0xe7, 0x0a, 0xfe, 0xc2, 0xef,
  0xce, 0xf8, 0xec, 0x06, 0x10, 0xfb, 0xad, 0xed, 0xe0, 0xf9, 0x0e, 0xf6,
  0xe7, 0x22, 0xb0, 0xef, 0xe7, 0xf5, 0xe2, 0x00, 0x07, 0xe9, 0x10, 0xec,
  0x03, 0xf9, 0xf2, 0xe3, 0xce, 0x1a, 0x12, 0xd2, 0x36, 0xf1, 0xf4, 0x18,
  0x05, 0x20, 0x20, 0x04, 0x04, 0xfb, 0xa6, 0x18, 0xd9, 0x08, 0xd0, 0x13,
  0xe2, 0x29, 0x13, 0x0e, 0x1d, 0x09, 0xef, 0xec, 0x10, 0x27, 0x0e, 0x22,
  0xf1, 0x0d, 0x9d, 0x00, 0x06, 0xf9, 0x30, 0xd7, 0x20, 0x02, 0xa5, 0x10,
  0x00, 0xda, 0x81, 0xb7, 0xce, 0x3f, 0xf8, 0x0e, 0xa3, 0xf5, 0xe5, 0xc4,
  0x99, 0x9d, 0xbb, 0xda, 0x17, 0xfe, 0xeb, 0xa8, 0xf6, 0xac, 0x35, 0xc7,
  0x24, 0x17, 0x03, 0xa1, 0xdd, 0x2c, 0x37, 0x43, 0xe4, 0xe1, 0xee, 0xa8,
  0xed, 0xe2, 0xa3, 0xa1, 0x28, 0xde, 0xe3, 0x9c, 0xfc, 0xae, 0x8d, 0xb6,
  0xa7, 0x06, 0x50, 0x34, 0xb1, 0xae, 0x31, 0xc8, 0xc4, 0xd6, 0x20, 0x35,
  0xf0, 0x1b, 0xc2, 0x18, 0x83, 0xf0, 0x05, 0xa1, 0xeb, 0x14, 0x02, 0x99,
  0x3b, 0x2e, 0xea, 0xa7, 0x1c, 0xaa, 0x20, 0xf8, 0xd3, 0xe9, 0x2b, 0x24,
  0xb9, 0x31, 0xec, 0x2b, 0xd2, 0xf1, 0xa2, 0x16, 0xf7, 0xea, 0xd1, 0x05,
  0xae, 0x11, 0xaf, 0xdc, 0xe2, 0x2b, 0xeb, 0x93, 0xb4, 0xb3, 0xf9, 0x87,
  0x13, 0x88, 0x99, 0xa3, 0xd8, 0x21, 0x07, 0xa7, 0xcf, 0x32, 0xed, 0xaf,
  0x25, 0xc9, 0x04, 0x8a, 0x19, 0x3b, 0xfe, 0x1e, 0xd7, 0x18, 0xc0, 0xb8,
  0xf5, 0x1f, 0xea, 0x9e, 0xd8, 0x13, 0xe1, 0x1c, 0x96, 0xf7, 0xff, 0xff,
  0x04, 0x00, 0x00, 0x00, 0xa0, 0x05, 0x00, 0x00, 0x24, 0x44, 0xbb, 0x07,
  0xf6, 0xf2, 0xf8, 0x94, 0x01, 0xf6, 0xf9, 0x1d, 0x23, 0x04, 0x02, 0xfc,
  0x81, 0xf7, 0xea, 0xa5, 0x04, 0xf0, 0x02, 0x15, 0x33, 0x18, 0x99, 0xf9,
  0x09, 0xfc, 0xef, 0xf9, 0xbe, 0xee, 0x1a, 0x19, 0xf1, 0xdd, 0x01, 0x06,
  0x05, 0x0d, 0x19, 0x15, 0xf1, 0x1b, 0xb3, 0x01, 0xc2, 0xb8, 0xfc, 0x0b,
  0x19, 0x14, 0xfa, 0x13, 0xd8, 0x11, 0xef, 0xeb, 0xf4, 0xd1, 0xde, 0x1c,
  0x1a, 0x34, 0x4c, 0xef, 0xf2, 0x24, 0xe8, 0xf0, 0x04, 0x04, 0x07, 0x09,
  0xe3, 0xfe, 0xf2, 0xec, 0xf9, 0x10, 0x0e, 0x15, 0x06, 0x07, 0x19, 0x12,
  0x0c, 0xd5, 0x0b, 0x0a, 0xf1, 0x0c, 0x27, 0x18, 0x23, 0xba, 0x05, 0x38,
  0x0d, 0x07, 0x0c, 0x13, 0x0e, 0x05, 0x14, 0x18, 0x0d, 0xec, 0xf1, 0xe9,
  0x09, 0xe9, 0x06, 0x03, 0xcf, 0xe8, 0x0e, 0x45, 0xf9, 0x02, 0xfa, 0x00,
  0x11, 0xf2, 0x40, 0xfc, 0x09, 0xcb, 0x01, 0x00, 0xda, 0xf3, 0xcc, 0x1e,
  0x1c, 0x33, 0xe8, 0x81, 0x04, 0x05, 0x1c, 0xf6, 0x0b, 0x0a, 0x07, 0x1a,
  0x0e, 0xbb, 0xfd, 0x22, 0xf5, 0x14, 0xe4, 0xe2, 0x03, 0x31, 0xed, 0xdb,
  0x18, 0xff, 0xce, 0xf5, 0xe9, 0x01, 0x3a, 0x2c, 0x30, 0xc5, 0xf9, 0xe9,
  0xd0, 0xea, 0x02, 0x04, 0x36, 0x15, 0x04, 0x0e, 0xcf, 0x20, 0x15, 0x08,
  0xf6, 0xda, 0xd0, 0x28, 0xba, 0xa3, 0xe5, 0xc5, 0x03, 0x0a, 0x1c, 0xd7,
  0xae, 0x27, 0xb1, 0x01, 0x20, 0x81, 0xed, 0xe9, 0x56, 0x12, 0xbf, 0xe8,
  0x92, 0x2a, 0x08, 0xec, 0x01, 0xff, 0xef, 0x3a, 0x2c, 0xed, 0xc1, 0xf5,
  0x40, 0x07, 0xe0, 0x2b, 0xfc, 0xf8, 0x58, 0x09, 0xe6, 0xfe, 0xfc, 0x11,
  0x00, 0xdf, 0xec, 0x10, 0xd6, 0x03, 0xcc, 0xfa, 0x1c, 0x2b, 0x1a, 0xf4,
  0x05, 0xd1, 0x2c, 0x10, 0x22, 0x47, 0xef, 0xe0, 0x13, 0x14, 0x0a, 0xfa,
  0x19, 0xf8, 0x21, 0x11, 0xed, 0x06, 0x22, 0xeb, 0x15, 0xfd, 0xe5, 0x03,
  0xc8, 0xd9, 0x38, 0x06, 0x17, 0xd7, 0xf6, 0xee, 0x1f, 0x4d, 0xdf, 0x68,
  0xe6, 0x34, 0xf0, 0xc8, 0x14, 0xf5, 0x5f, 0x02, 0xe1, 0x25, 0xde, 0xee,
  0x0b, 0xa7, 0x02, 0x2f, 0x1c, 0x2e, 0xdd, 0xd3, 0xeb, 0x22, 0x50, 0x00,
  0x0c, 0x0f, 0x40, 0xde, 0xf6, 0x2b, 0x2e, 0xfd, 0x16, 0xdb, 0x01, 0x32,
  0xef, 0xec, 0x81, 0x03, 0x19, 0xe9, 0xec, 0xa2, 0x14, 0x00, 0x6b, 0xdd,
  0xe8, 0xec, 0xc2, 0xf0, 0x47, 0x47, 0x0d, 0x14, 0x0c, 0x13, 0xb0, 0xf3,
  0x32, 0xe1, 0x26, 0xe4, 0xe4, 0x07, 0x29, 0x6a, 0xb2, 0x49, 0x1c, 0x1b,
  0xf4, 0x25, 0x02, 0xd2, 0xfe, 0x0a, 0x04, 0xe1, 0x24, 0x23, 0x3a, 0x33,
  0x47, 0x32, 0x04, 0x52, 0xcc, 0xb1, 0xb8, 0x28, 0xf4, 0xea, 0xca, 0xf9,
  0x29, 0xfb, 0x25, 0xdf, 0xcc, 0x04, 0x36, 0xb6, 0xcf, 0x30, 0x0a, 0xfe,
  0xbf, 0xbe, 0x06, 0x2e, 0xce, 0x1d, 0x2b, 0x4b, 0x72, 0xf5, 0xf2, 0xf6,
  0xca, 0xc4, 0x2b, 0x81, 0x0a, 0xfb, 0xf0, 0xa9, 0xdd, 0x6f, 0x13, 0x91,
  0x19, 0xad, 0x37, 0x1a, 0xf6, 0xdf, 0x44, 0x20, 0x1c, 0xe6, 0xbd, 0xa6,
  0xdd, 0xe9, 0x2e, 0xe3, 0x19, 0xea, 0xe8, 0xcf, 0xf4, 0xb5, 0xfc, 0x23,
  0xaf, 0x8f, 0x2f, 0x0b, 0x38, 0xc6, 0x3b, 0xf6, 0x02, 0x3c, 0xd4, 0xb6,
  0x0c, 0x06, 0xf9, 0xb5, 0xf9, 0xa8, 0xaf, 0x0b, 0xfd, 0x0d, 0x70, 0x89,
  0x0b, 0x00, 0xab, 0x8d, 0x9d, 0x2d, 0xe8, 0x16, 0x33, 0xd9, 0x15, 0x2e,
  0xff, 0xf5, 0xeb, 0xd7, 0xf2, 0xea, 0x06, 0xef, 0x11, 0xfc, 0xce, 0xca,
  0xb2, 0x19, 0x32, 0xea, 0x3d, 0x19, 0x0f, 0x13, 0x29, 0xcb, 0xdc, 0x0b,
  0x37, 0xbe, 0x1f, 0x29, 0x3a, 0x2e, 0x2a, 0x0d, 0x0d, 0xe6, 0x17, 0x29,
  0x2c, 0x3d, 0xf4, 0x1a, 0x20, 0xfd, 0x11, 0x17, 0x2d, 0x02, 0x7f, 0x54,
  0x0b, 0xec, 0x02, 0x1b, 0xec, 0xe8, 0xf2, 0x08, 0xe1, 0xeb, 0x1d, 0xfa,
  0x12, 0xf2, 0x27, 0x03, 0x01, 0x2c, 0xf7, 0x10, 0xf1, 0x09, 0x04, 0x07,
  0x06, 0x03, 0x15, 0x1a, 0x03, 0xf9, 0x02, 0xfc, 0x0d, 0x08, 0xfd, 0x0f,
  0x12, 0x0e, 0x01, 0x05, 0x1c, 0x0d, 0x0d, 0xf7, 0x08, 0x12, 0x2c, 0x1b,
  0x21, 0x2d, 0xf8, 0xfe, 0x01, 0xf3, 0xee, 0xdf, 0xfb, 0x09, 0xf5, 0xff,
  0xf6, 0x0b, 0x02, 0xac, 0x13, 0xee, 0x1a, 0x02, 0xfd, 0x00, 0xed, 0xf8,
  0x07, 0xc3, 0x09, 0xee, 0x0f, 0xf0, 0xe1, 0x17, 0x01, 0xfa, 0xf7, 0xa7,
  0xf1, 0xcf, 0xf4, 0x0e, 0x16, 0x09, 0x1a, 0xfe, 0xf8, 0xc0, 0xf3, 0xfc,
  0xfa, 0xe9, 0x20, 0xf7, 0x10, 0x09, 0x0b, 0x81, 0x0a, 0xf2, 0xeb, 0xf0,
  0x27, 0xb3, 0x09, 0xf5, 0x1b, 0x1d, 0xfe, 0x17, 0x1a, 0xe6, 0x00, 0x00,
  0xd9, 0xfe, 0xff, 0x09, 0xfe, 0x00, 0x16, 0xe1, 0xaa, 0xf0, 0x0f, 0xe5,
  0x27, 0x02, 0x0d, 0x0b, 0xd3, 0xac, 0xf6, 0x34, 0x0f, 0x29, 0x0e, 0xef,
  0x14, 0x0a, 0xe2, 0xf6, 0xff, 0x14, 0xf7, 0xf7, 0xee, 0xf9, 0x12, 0xfd,
  0xe3, 0x01, 0x03, 0xd2, 0x16, 0x13, 0xe7, 0xf2, 0xf9, 0x14, 0xc8, 0xf4,
  0x10, 0x3f, 0xf6, 0x26, 0x1d, 0xe4, 0x01, 0xea, 0x81, 0xfa, 0x11, 0xb5,
  0x09, 0x24, 0xf0, 0xf2, 0xfa, 0x0c, 0x1b, 0x12, 0x26, 0xff, 0x1a, 0x08,
  0xf9, 0x02, 0xf2, 0x1b, 0x0a, 0xe7, 0xf0, 0x48, 0x0f, 0xf3, 0x4d, 0x0b,
  0x56, 0xea, 0xf1, 0x17, 0x37, 0xe5, 0x10, 0x17, 0x15, 0xf6, 0xe3, 0x2a,
  0xa5, 0x68, 0x41, 0x17, 0x06, 0xff, 0xde, 0x44, 0xcc, 0x11, 0x3a, 0xec,
  0x30, 0x42, 0x26, 0x09, 0x38, 0x21, 0x21, 0xf9, 0x1c, 0x38, 0x27, 0x30,
  0x15, 0xfa, 0xc8, 0x27, 0x05, 0xa9, 0x09, 0x12, 0x1e, 0x43, 0xe7, 0xe1,
  0x18, 0x6f, 0x2c, 0xe5, 0x38, 0xe0, 0x24, 0x0b, 0x02, 0x05, 0xeb, 0xf4,
  0x19, 0x51, 0x28, 0x1a, 0x1b, 0xd9, 0x08, 0xf7, 0xcf, 0xc6, 0xe7, 0xe0,
  0xf4, 0x20, 0x61, 0x2b, 0x81, 0xef, 0x17, 0x0f, 0x4a, 0xf7, 0xe6, 0xe7,
  0x5b, 0xf7, 0xcc, 0xb8, 0x02, 0x55, 0x30, 0x38, 0xae, 0x07, 0x15, 0xef,
  0xe1, 0xd1, 0xf3, 0x05, 0x21, 0x01, 0x2c, 0xaf, 0x4f, 0xf0, 0xea, 0x4b,
  0x22, 0xf8, 0x0b, 0xa1, 0x48, 0x0b, 0x4b, 0xa1, 0x23, 0xce, 0x02, 0x1e,
  0xe2, 0x16, 0xda, 0x1c, 0x11, 0xf1, 0x38, 0x81, 0xf4, 0xd5, 0xb4, 0x2f,
  0x4e, 0xf5, 0xff, 0x26, 0x23, 0x08, 0x2f, 0x1e, 0xe0, 0x1d, 0x0b, 0x24,
  0x09, 0xf0, 0xfd, 0xa8, 0xeb, 0xf1, 0xce, 0x3e, 0x1b, 0x3e, 0xea, 0xfb,
  0xff, 0xcf, 0x01, 0xef, 0xf9, 0x29, 0x92, 0xfa, 0x01, 0x32, 0xf7, 0xfd,
  0x29, 0x08, 0x0e, 0xed, 0xe3, 0x12, 0xdb, 0x05, 0x03, 0x0d, 0xff, 0x0a,
  0x05, 0xdb, 0x03, 0xf5, 0x10, 0xfa, 0xbd, 0x16, 0xe9, 0x0b, 0x16, 0xc5,
  0x14, 0x06, 0x3d, 0x19, 0x81, 0xf4, 0xf9, 0x0b, 0x27, 0x84, 0xea, 0x07,
  0xc1, 0xfd, 0xdf, 0xf3, 0xec, 0x04, 0x08, 0x0c, 0xca, 0x01, 0xfd, 0x14,
  0xe8, 0xfa, 0x01, 0x05, 0x0e, 0xec, 0x12, 0xf7, 0xef, 0x04, 0xbd, 0x07,
  0x1e, 0x05, 0x0f, 0xc6, 0xf7, 0xe6, 0xef, 0xfd, 0xf5, 0xfc, 0x19, 0x27,
  0x0d, 0xef, 0xf8, 0x2f, 0x12, 0xfc, 0x0d, 0x0a, 0xf6, 0x06, 0xfd, 0x24,
  0x2b, 0x03, 0x09, 0xf3, 0xe9, 0xe7, 0x06, 0x28, 0x0c, 0xf8, 0x03, 0xf8,
  0x05, 0xe5, 0xda, 0xde, 0xef, 0x07, 0x05, 0x81, 0xc5, 0x24, 0x05, 0xa7,
  0x1d, 0xf3, 0xf2, 0xef, 0xf6, 0xfa, 0x16, 0xf1, 0x45, 0x09, 0xec, 0xff,
  0x35, 0x06, 0x19, 0xef, 0x2a, 0xfb, 0x02, 0x0f, 0xd9, 0x0e, 0x33, 0x21,
  0xf9, 0xe9, 0xb6, 0x33, 0x08, 0x0e, 0x13, 0xda, 0x10, 0xfb, 0x20, 0x0b,
  0x1e, 0xf2, 0x3e, 0x25, 0x04, 0xff, 0xfe, 0xee, 0xdf, 0x0d, 0x21, 0xda,
  0x08, 0x10, 0xf4, 0x23, 0x28, 0x28, 0xf7, 0xb4, 0xe5, 0xd9, 0x04, 0x22,
  0xfd, 0xf0, 0xcf, 0xf5, 0xfd, 0xee, 0x6e, 0xdc, 0x35, 0x3e, 0xe9, 0x0f,
  0xea, 0x25, 0x0e, 0xee, 0x00, 0x0d, 0x49, 0xff, 0x22, 0x19, 0xf6, 0xe7,
  0xc2, 0x48, 0xca, 0xcf, 0xe8, 0x34, 0xf9, 0xcc, 0x1b, 0xf7, 0x81, 0x06,
  0xcc, 0xee, 0x29, 0x36, 0x01, 0xeb, 0xe6, 0x08, 0xc3, 0x15, 0x62, 0xe9,
  0xd3, 0xfa, 0xfb, 0xc4, 0x6d, 0x06, 0xe1, 0xf9, 0x06, 0x52, 0x02, 0x30,
  0x10, 0x09, 0x2a, 0x22, 0xd3, 0x19, 0xda, 0x0d, 0xce, 0xd5, 0x06, 0xd7,
  0x04, 0xc6, 0xc2, 0x11, 0x14, 0xf2, 0x1c, 0xe2, 0x45, 0x10, 0xd8, 0xea,
  0xca, 0xe1, 0x4c, 0x63, 0x21, 0x2c, 0x2c, 0x35, 0xa0, 0xcf, 0x96, 0x1d,
  0x53, 0x41, 0x28, 0xd5, 0xff, 0xdd, 0x02, 0x15, 0x10, 0x3c, 0x0b, 0x38,
  0x08, 0xe0, 0x06, 0xc9, 0x1f, 0xdd, 0xfc, 0x29, 0x16, 0x1e, 0x0d, 0x20,
  0xf3, 0x1d, 0xfe, 0xd7, 0x06, 0x0a, 0x04, 0x09, 0x0a, 0xc7, 0x06, 0xe7,
  0x17, 0x14, 0xdc, 0xe9, 0xe4, 0xf9, 0x1b, 0xf8, 0xee, 0xdb, 0x1e, 0xf0,
  0x24, 0x21, 0x45, 0x16, 0xef, 0x19, 0x13, 0x01, 0xdf, 0xf5, 0xe3, 0x30,
  0xf7, 0x1f, 0xfd, 0xd7, 0x0f, 0x0b, 0xf9, 0xe5, 0x81, 0xd5, 0xa8, 0x10,
  0x12, 0xea, 0x26, 0xe1, 0x02, 0xff, 0x3d, 0x0c, 0x5a, 0xe5, 0xfc, 0x2e,
  0xe6, 0xda, 0x06, 0x09, 0x0d, 0xe8, 0x1c, 0xe1, 0xcf, 0xd7, 0x21, 0x3a,
  0xe5, 0x2b, 0xaf, 0x19, 0xd6, 0xda, 0xe9, 0x19, 0xf2, 0xc2, 0x39, 0x03,
  0x2b, 0xdf, 0xcc, 0x18, 0x10, 0xc6, 0xcb, 0x0e, 0xf9, 0x06, 0xe6, 0x35,
  0xe1, 0x34, 0x1d, 0xbb, 0x17, 0x90, 0xef, 0xd2, 0x2e, 0x1f, 0x81, 0xda,
  0x58, 0x3f, 0xfa, 0xfb, 0x02, 0xef, 0x1e, 0x03, 0x33, 0xf0, 0x2b, 0xff,
  0x0c, 0x15, 0xec, 0x21, 0xff, 0xe5, 0x24, 0x00, 0xe7, 0x08, 0x0a, 0xdf,
  0xdf, 0xee, 0xf6, 0x05, 0x1b, 0xe2, 0x05, 0xe7, 0xfd, 0x24, 0xfb, 0x0b,
  0x16, 0xf9, 0x16, 0x03, 0xf7, 0x3c, 0xea, 0x0f, 0x2d, 0x10, 0xfd, 0xe0,
  0x08, 0x1e, 0xd8, 0xf2, 0x33, 0x2e, 0xc4, 0x08, 0xec, 0xf1, 0x2c, 0xcb,
  0xdc, 0x23, 0x1e, 0xfc, 0x0f, 0x19, 0x14, 0xd3, 0x10, 0x21, 0xee, 0xfd,
  0x03, 0x10, 0x15, 0x0f, 0xf4, 0xe5, 0xe7, 0xf5, 0x19, 0x06, 0x0c, 0x01,
  0xea, 0x19, 0x19, 0xeb, 0xdf, 0xe0, 0xf4, 0xee, 0xfd, 0xfa, 0x0b, 0xfe,
  0x1f, 0x1c, 0x01, 0xee, 0x04, 0xe3, 0x1d, 0xf4, 0x03, 0xf0, 0x0c, 0x05,
  0xa3, 0xe6, 0xef, 0xde, 0x1e, 0x16, 0xec, 0xfb, 0xfd, 0xfe, 0x81, 0xd6,
  0xf9, 0xad, 0x03, 0xff, 0x0d, 0x0f, 0x15, 0x12, 0x3b, 0x05, 0x05, 0xf4,
  0xf5, 0xee, 0x07, 0x06, 0x0e, 0xc8, 0xc7, 0xfc, 0xf2, 0xa3, 0x1d, 0xf6,
  0xfd, 0x1f, 0xd0, 0xd9, 0x9a, 0x0b, 0xce, 0xb8, 0x42, 0xfd, 0xff, 0xff,
  0x04, 0x00, 0x00, 0x00, 0x0e, 0x01, 0x00, 0x00, 0x10, 0x22, 0x51, 0x30,
  0x04, 0x1f, 0xaf, 0xc7, 0xba, 0x66, 0x28, 0x42, 0x0f, 0x2d, 0xd9, 0xbc,
  0x81, 0xc5, 0x34, 0x33, 0x37, 0xf1, 0xf7, 0xbf, 0xbe, 0xed, 0xfd, 0x81,
  0xc1, 0xe1, 0x9a, 0xa6, 0xd3, 0x06, 0xdd, 0x0e, 0x98, 0xe5, 0xc1, 0x20,
  0x0b, 0x0a, 0x6c, 0x3d, 0x2f, 0x24, 0x0c, 0xeb, 0x5c, 0x2b, 0x5c, 0x45,
  0x05, 0x25, 0x2f, 0xdf, 0x81, 0xcf, 0x25, 0xc7, 0xd2, 0x3c, 0xfd, 0x55,
  0x69, 0x4b, 0x46, 0x3c, 0x26, 0x37, 0x2c, 0x28, 0x0b, 0xba, 0x8f, 0xfa,
  0xd0, 0xa0, 0xeb, 0x17, 0xef, 0x49, 0x46, 0xf0, 0x5f, 0x0a, 0x6a, 0x3d,
  0x44, 0x28, 0xf4, 0x06, 0x17, 0x0f, 0x3d, 0xf6, 0x3a, 0xec, 0x28, 0xc4,
  0xd2, 0xdf, 0x81, 0xaa, 0xc0, 0x99, 0xb0, 0xa7, 0xdd, 0xd8, 0x07, 0xa8,
  0xb7, 0xef, 0x81, 0xb2, 0xf8, 0x26, 0x2d, 0x1d, 0x2f, 0x10, 0xfa, 0x08,
  0xf4, 0xd2, 0x2e, 0x2a, 0x17, 0x2c, 0x37, 0x29, 0x43, 0x21, 0xe6, 0xfa,
  0xb6, 0xcd, 0xea, 0x2d, 0x07, 0xf9, 0x32, 0x3a, 0x8f, 0x9e, 0xa9, 0x03,
  0x24, 0xda, 0x7f, 0x1a, 0x5d, 0xd0, 0xac, 0xc9, 0xda, 0x16, 0x0f, 0x65,
  0x1a, 0x42, 0xfb, 0x0e, 0x17, 0x0a, 0xe5, 0xca, 0x65, 0x0f, 0xb5, 0x8a,
  0x06, 0x4f, 0xde, 0x24, 0x3b, 0x06, 0x03, 0xbc, 0xa0, 0x3b, 0x5f, 0x81,
  0x25, 0x40, 0x09, 0x37, 0xe3, 0x49, 0xf1, 0x22, 0xfa, 0x81, 0xde, 0x37,
  0x1a, 0x2e, 0x0f, 0xae, 0xf3, 0x25, 0xd0, 0x2a, 0x22, 0xb7, 0x03, 0x21,
  0xf5, 0x16, 0x01, 0xd7, 0x03, 0x07, 0xbf, 0x14, 0x11, 0x33, 0x33, 0x96,
  0x81, 0xbc, 0x2f, 0x50, 0x39, 0x51, 0x34, 0x3e, 0xc5, 0xb9, 0xb8, 0x0f,
  0x4c, 0x0a, 0x0a, 0xcf, 0xf5, 0xfc, 0xe9, 0xa4, 0xe6, 0x16, 0x0c, 0xf9,
  0xe5, 0xf0, 0xf1, 0x5b, 0x0d, 0x81, 0x29, 0x0f, 0x0a, 0x40, 0xcd, 0xa7,
  0x4b, 0xcf, 0xcd, 0x79, 0x21, 0x23, 0x3f, 0xa6, 0xd3, 0x39, 0xbc, 0x07,
  0x45, 0xcb, 0x00, 0x00, 0x5e, 0xfe, 0xff, 0xff, 0x04, 0x00, 0x00, 0x00,
  0x80, 0x00, 0x00, 0x00, 0xbc, 0x02, 0x00, 0x00, 0x9f, 0x03, 0x00, 0x00,
  0x62, 0x0b, 0x00, 0x00, 0x7c, 0xef, 0xff, 0xff, 0xcb, 0x05, 0x00, 0x00,
  0x2d, 0xf6, 0xff, 0xff, 0x65, 0xf5, 0xff, 0xff, 0xd9, 0xfa, 0xff, 0xff,
  0xfb, 0xfc, 0xff, 0xff, 0xb0, 0x00, 0x00, 0x00, 0x26, 0x03, 0x00, 0x00,
  0xbc, 0x08, 0x00, 0x00, 0x4f, 0xff, 0xff, 0xff, 0xea, 0xfc, 0xff, 0xff,
  0x7f, 0x05, 0x00, 0x00, 0xfc, 0xf5, 0xff, 0xff, 0xd3, 0xfa, 0xff, 0xff,
  0x38, 0x00, 0x00, 0x00, 0x50, 0x15, 0x00, 0x00, 0x4b, 0x05, 0x00, 0x00,
  0x94, 0x04, 0x00, 0x00, 0xf2, 0x02, 0x00, 0x00, 0xf1, 0x0b, 0x00, 0x00,
  0x89, 0x0c, 0x00, 0x00, 0x45, 0x12, 0x00, 0x00, 0x28, 0x0b, 0x00, 0x00,
  0xee, 0x06, 0x00, 0x00, 0xae, 0x04, 0x00, 0x00, 0xc6, 0x0f, 0x00, 0x00,
  0x1d, 0x06, 0x00, 0x00, 0x1a, 0x07, 0x00, 0x00, 0x8d, 0xfa, 0xff, 0xff,
  0xea, 0xfe, 0xff, 0xff, 0x04, 0x00, 0x00, 0x00, 0x40, 0x00, 0x00, 0x00,
  0x42, 0x06, 0x00, 0x00, 0x66, 0xf0, 0xff, 0xff, 0x53, 0x04, 0x00, 0x00,
  0x0f, 0xe2, 0xff, 0xff, 0xa7, 0x04, 0x00, 0x00, 0x7e, 0x05, 0x00, 0x00,
  0xbb, 0x08, 0x00, 0x00, 0xb6, 0x0a, 0x00, 0x00, 0xc9, 0xd7, 0xff, 0xff,
  0xaa, 0x0b, 0x00, 0x00, 0xc3, 0x03, 0x00, 0x00, 0xe7, 0x09, 0x00, 0x00,
  0x1d, 0xfe, 0xff, 0xff, 0x70, 0x09, 0x00, 0x00, 0xa8, 0x03, 0x00, 0x00,
  0xca, 0x13, 0x00, 0x00, 0x36, 0xff, 0xff, 0xff, 0x04, 0x00, 0x00, 0x00,
  0x28, 0x00, 0x00, 0x00, 0x79, 0x04, 0x00, 0x00, 0x9a, 0x0b, 0x00, 0x00,
  0xcb, 0xd3, 0xff, 0xff, 0x71, 0x01, 0x00, 0x00, 0x3a, 0xff, 0xff, 0xff,
  0x81, 0x00, 0x00, 0x00, 0x35, 0x06, 0x00, 0x00, 0x4b, 0x05, 0x00, 0x00,
  0x01, 0xff, 0xff, 0xff, 0x2e, 0x13, 0x00, 0x00, 0xfc, 0xff, 0xff, 0xff,
  0x04, 0x00, 0x04, 0x00, 0x04, 0x00, 0x00, 0x00, 0x0f, 0x00, 0x00, 0x00,
  0x4d, 0x4c, 0x49, 0x52, 0x20, 0x43, 0x6f, 0x6e, 0x76, 0x65, 0x72, 0x74,
  0x65, 0x64, 0x2e, 0x00, 0x01, 0x00, 0x00, 0x00, 0x14, 0x00, 0x00, 0x00,
  0x00, 0x00, 0x0e, 0x00, 0x18, 0x00, 0x14, 0x00, 0x10, 0x00, 0x0c, 0x00,
  0x08, 0x00, 0x04, 0x00, 0x0e, 0x00, 0x00, 0x00, 0x14, 0x00, 0x00, 0x00,
  0x1c, 0x00, 0x00, 0x00, 0x2c, 0x02, 0x00, 0x00, 0x34, 0x02, 0x00, 0x00,
  0x38, 0x02, 0x00, 0x00, 0x04, 0x00, 0x00, 0x00, 0x6d, 0x61, 0x69, 0x6e,
  0x00, 0x00, 0x00, 0x00, 0x07, 0x00, 0x00, 0x00, 0xc4, 0x01, 0x00, 0x00,
  0x64, 0x01, 0x00, 0x00, 0x10, 0x01, 0x00, 0x00, 0xcc, 0x00, 0x00, 0x00,
  0x80, 0x00, 0x00, 0x00, 0x40, 0x00, 0x00, 0x00, 0x04, 0x00, 0x00, 0x00,
  0xc2, 0xfe, 0xff, 0xff, 0x1c, 0x00, 0x00, 0x00, 0x00, 0x00, 0x00, 0x09,
  0x1c, 0x00, 0x00, 0x00, 0x20, 0x00, 0x00, 0x00, 0x02, 0x00, 0x00, 0x00,
  0x00, 0x00, 0x06, 0x00, 0x08, 0x00, 0x04, 0x00, 0x06, 0x00, 0x00, 0x00,
  0x00, 0x00, 0x80, 0x3f, 0x01, 0x00, 0x00, 0x00, 0x11, 0x00, 0x00, 0x00,
  0x01, 0x00, 0x00, 0x00, 0x10, 0x00, 0x00, 0x00, 0x9e, 0xfe, 0xff, 0xff,
  0x10, 0x00, 0x00, 0x00, 0x00, 0x00, 0x00, 0x01, 0x18, 0x00, 0x00, 0x00,
  0x1c, 0x00, 0x00, 0x00, 0xc2, 0xff, 0xff, 0xff, 0x01, 0x00, 0x00, 0x00,
  0x01, 0x00, 0x00, 0x00, 0x00, 0x00, 0x00, 0x01, 0x01, 0x00, 0x00, 0x00,
  0x10, 0x00, 0x00, 0x00, 0x03, 0x00, 0x00, 0x00, 0x0e, 0x00, 0x00, 0x00,
  0x08, 0x00, 0x00, 0x00, 0x0a, 0x00, 0x00, 0x00, 0xda, 0xfe, 0xff, 0xff,
  0x1c, 0x00, 0x00, 0x00, 0x00, 0x00, 0x00, 0x01, 0x24, 0x00, 0x00, 0x00,
  0x28, 0x00, 0x00, 0x00, 0x00, 0x00, 0x0a, 0x00, 0x10, 0x00, 0x0f, 0x00,
  0x08, 0x00, 0x04, 0x00, 0x0a, 0x00, 0x00, 0x00, 0x01, 0x00, 0x00, 0x00,
  0x01, 0x00, 0x00, 0x00, 0x00, 0x00, 0x00, 0x01, 0x01, 0x00, 0x00, 0x00,
  0x0f, 0x00, 0x00, 0x00, 0x03, 0x00, 0x00, 0x00, 0x0e, 0x00, 0x00, 0x00,
  0x07, 0x00, 0x00, 0x00, 0x09, 0x00, 0x00, 0x00, 0x22, 0xff, 0xff, 0xff,
  0x10, 0x00, 0x00, 0x00, 0x00, 0x00, 0x00, 0x01, 0x1c, 0x00, 0x00, 0x00,
  0x20, 0x00, 0x00, 0x00, 0x14, 0xff, 0xff, 0xff, 0x00, 0x00, 0x00, 0x01,
  0x01, 0x00, 0x00, 0x00, 0x01, 0x00, 0x00, 0x00, 0x00, 0x00, 0x00, 0x01,
  0x01, 0x00, 0x00, 0x00, 0x0e, 0x00, 0x00, 0x00, 0x03, 0x00, 0x00, 0x00,
  0x0d, 0x00, 0x00, 0x00, 0x06, 0x00, 0x00, 0x00, 0x03, 0x00, 0x00, 0x00,
  0x62, 0xff, 0xff, 0xff, 0x10, 0x00, 0x00, 0x00, 0x00, 0x00, 0x00, 0x01,
  0x1c, 0x00, 0x00, 0x00, 0x20, 0x00, 0x00, 0x00, 0x54, 0xff, 0xff, 0xff,
  0x00, 0x00, 0x00, 0x01, 0x01, 0x00, 0x00, 0x00, 0x01, 0x00, 0x00, 0x00,
  0x00, 0x00, 0x00, 0x01, 0x01, 0x00, 0x00, 0x00, 0x0d, 0x00, 0x00, 0x00,
  0x03, 0x00, 0x00, 0x00, 0x0c, 0x00, 0x00, 0x00, 0x05, 0x00, 0x00, 0x00,
  0x02, 0x00, 0x00, 0x00, 0x00, 0x00, 0x0e, 0x00, 0x1a, 0x00, 0x14, 0x00,
  0x10, 0x00, 0x0c, 0x00, 0x0b, 0x00, 0x04, 0x00, 0x0e, 0x00, 0x00, 0x00,
  0x24, 0x00, 0x00, 0x00, 0x00, 0x00, 0x00, 0x05, 0x30, 0x00, 0x00, 0x00,
  0x34, 0x00, 0x00, 0x00, 0x01, 0x00, 0x00, 0x00, 0x00, 0x00, 0x0e, 0x00,
  0x14, 0x00, 0x00, 0x00, 0x10, 0x00, 0x0c, 0x00, 0x08, 0x00, 0x04, 0x00,
  0x0e, 0x00, 0x00, 0x00, 0x02, 0x00, 0x00, 0x00, 0x02, 0x00, 0x00, 0x00,
  0x02, 0x00, 0x00, 0x00, 0x02, 0x00, 0x00, 0x00, 0x01, 0x00, 0x00, 0x00,
  0x0c, 0x00, 0x00, 0x00, 0x01, 0x00, 0x00, 0x00, 0x0b, 0x00, 0x00, 0x00,
  0x00, 0x00, 0x0e, 0x00, 0x14, 0x00, 0x00, 0x00, 0x10, 0x00, 0x0c, 0x00,
  0x0b, 0x00, 0x04, 0x00, 0x0e, 0x00, 0x00, 0x00, 0x1c, 0x00, 0x00, 0x00,
  0x00, 0x00, 0x00, 0x01, 0x28, 0x00, 0x00, 0x00, 0x2c, 0x00, 0x00, 0x00,
  0x0c, 0x00, 0x14, 0x00, 0x13, 0x00, 0x0c, 0x00, 0x08, 0x00, 0x07, 0x00,
  0x0c, 0x00, 0x00, 0x00, 0x00, 0x00, 0x00, 0x01, 0x01, 0x00, 0x00, 0x00,
  0x01, 0x00, 0x00, 0x00, 0x00, 0x00, 0x00, 0x01, 0x01, 0x00, 0x00, 0x00,
  0x0b, 0x00, 0x00, 0x00, 0x03, 0x00, 0x00, 0x00, 0x00, 0x00, 0x00, 0x00,
  0x04, 0x00, 0x00, 0x00, 0x01, 0x00, 0x00, 0x00, 0x02, 0x00, 0x00, 0x00,
  0x0f, 0x00, 0x00, 0x00, 0x11, 0x00, 0x00, 0x00, 0x01, 0x00, 0x00, 0x00,
  0x00, 0x00, 0x00, 0x00, 0x12, 0x00, 0x00, 0x00, 0x8c, 0x12, 0x00, 0x00,
  0x88, 0x11, 0x00, 0x00, 0x48, 0x10, 0x00, 0x00, 0x5c, 0x0e, 0x00, 0x00,
  0x20, 0x0d, 0x00, 0x00, 0x6c, 0x0b, 0x00, 0x00, 0x78, 0x08, 0x00, 0x00,
  0xb4, 0x07, 0x00, 0x00, 0x18, 0x07, 0x00, 0x00, 0x44, 0x06, 0x00, 0x00,
  0x90, 0x05, 0x00, 0x00, 0x94, 0x04, 0x00, 0x00, 0xf0, 0x03, 0x00, 0x00,
  0xf4, 0x02, 0x00, 0x00, 0xf8, 0x01, 0x00, 0x00, 0x64, 0x01, 0x00, 0x00,
  0x80, 0x00, 0x00, 0x00, 0x04, 0x00, 0x00, 0x00, 0xd0, 0xed, 0xff, 0xff,
  0x18, 0x00, 0x00, 0x00, 0x28, 0x00, 0x00, 0x00, 0x44, 0x00, 0x00, 0x00,
  0x12, 0x00, 0x00, 0x00, 0x00, 0x00, 0x00, 0x09, 0x4c, 0x00, 0x00, 0x00,
  0x04, 0x00, 0x00, 0x00, 0xff, 0xff, 0xff, 0xff, 0x01, 0x00, 0x00, 0x00,
  0x01, 0x00, 0x00, 0x00, 0x02, 0x00, 0x00, 0x00, 0xd4, 0xee, 0xff, 0xff,
  0x08, 0x00, 0x00, 0x00, 0x10, 0x00, 0x00, 0x00, 0x01, 0x00, 0x00, 0x00,
  0x80, 0xff, 0xff, 0xff, 0xff, 0xff, 0xff, 0xff, 0x01, 0x00, 0x00, 0x00,
  0x00, 0x00, 0x80, 0x3b, 0x0f, 0x00, 0x00, 0x00, 0x49, 0x64, 0x65, 0x6e,
  0x74, 0x69, 0x74, 0x79, 0x5f, 0x31, 0x5f, 0x69, 0x6e, 0x74, 0x38, 0x00,
  0x04, 0x00, 0x00, 0x00, 0x01, 0x00, 0x00, 0x00, 0x01, 0x00, 0x00, 0x00,
  0x01, 0x00, 0x00, 0x00, 0x02, 0x00, 0x00, 0x00, 0x48, 0xee, 0xff, 0xff,
  0x18, 0x00, 0x00, 0x00, 0x28, 0x00, 0x00, 0x00, 0x5c, 0x00, 0x00, 0x00,
  0x11, 0x00, 0x00, 0x00, 0x00, 0x00, 0x00, 0x09, 0xb4, 0x00, 0x00, 0x00,
  0x04, 0x00, 0x00, 0x00, 0xff, 0xff, 0xff, 0xff, 0x01, 0x00, 0x00, 0x00,
  0x01, 0x00, 0x00, 0x00, 0x02, 0x00, 0x00, 0x00, 0x34, 0xee, 0xff, 0xff,
  0x10, 0x00, 0x00, 0x00, 0x18, 0x00, 0x00, 0x00, 0x1c, 0x00, 0x00, 0x00,
  0x20, 0x00, 0x00, 0x00, 0x01, 0x00, 0x00, 0x00, 0xf3, 0xff, 0xff, 0xff,
  0xff, 0xff, 0xff, 0xff, 0x01, 0x00, 0x00, 0x00, 0xb6, 0x89, 0xbc, 0x3d,
  0x01, 0x00, 0x00, 0x00, 0x0a, 0x93, 0x4d, 0x41, 0x01, 0x00, 0x00, 0x00,
  0x4f, 0x07, 0x2a, 0xc1, 0x5f, 0x00, 0x00, 0x00, 0x50, 0x4e, 0x65, 0x74,
  0x2f, 0x50, 0x4e, 0x65, 0x74, 0x5f, 0x43, 0x4f, 0x4e, 0x56, 0x34, 0x2f,
  0x42, 0x69, 0x61, 0x73, 0x41, 0x64, 0x64, 0x3b, 0x50, 0x4e, 0x65, 0x74,
  0x2f, 0x50, 0x4e, 0x65, 0x74, 0x5f, 0x43, 0x4f, 0x4e, 0x56, 0x34, 0x2f,
  0x43, 0x6f, 0x6e, 0x76, 0x32, 0x44, 0x3b, 0x50, 0x4e, 0x65, 0x74, 0x2f,
  0x50, 0x4e, 0x65, 0x74, 0x5f, 0x43, 0x4f, 0x4e, 0x56, 0x34, 0x2f, 0x42,
  0x69, 0x61, 0x73, 0x41, 0x64, 0x64, 0x2f, 0x52, 0x65, 0x61, 0x64, 0x56,
  0x61, 0x72, 0x69, 0x61, 0x62, 0x6c, 0x65, 0x4f, 0x70, 0x2f, 0x72, 0x65,
  0x73, 0x6f, 0x75, 0x72, 0x63, 0x65, 0x31, 0x00, 0x04, 0x00, 0x00, 0x00,
  0x01, 0x00, 0x00, 0x00, 0x01, 0x00, 0x00, 0x00, 0x01, 0x00, 0x00, 0x00,
  0x02, 0x00, 0x00, 0x00, 0x28, 0xef, 0xff, 0xff, 0x18, 0x00, 0x00, 0x00,
  0x28, 0x00, 0x00, 0x00, 0x5c, 0x00, 0x00, 0x00, 0x10, 0x00, 0x00, 0x00,
  0x00, 0x00, 0x00, 0x09, 0x64, 0x00, 0x00, 0x00, 0x04, 0x00, 0x00, 0x00,
  0xff, 0xff, 0xff, 0xff, 0x01, 0x00, 0x00, 0x00, 0x01, 0x00, 0x00, 0x00,
  0x04, 0x00, 0x00, 0x00, 0x14, 0xef, 0xff, 0xff, 0x10, 0x00, 0x00, 0x00,
  0x18, 0x00, 0x00, 0x00, 0x1c, 0x00, 0x00, 0x00, 0x20, 0x00, 0x00, 0x00,
  0x01, 0x00, 0x00, 0x00, 0xe6, 0xff, 0xff, 0xff, 0xff, 0xff, 0xff, 0xff,
  0x01, 0x00, 0x00, 0x00, 0xc0, 0x8c, 0x1c, 0x3b, 0x01, 0x00, 0x00, 0x00,
  0x86, 0x3f, 0xbb, 0x3e, 0x01, 0x00, 0x00, 0x00, 0xc0, 0x41, 0x79, 0xbe,
  0x0d, 0x00, 0x00, 0x00, 0x49, 0x64, 0x65, 0x6e, 0x74, 0x69, 0x74, 0x79,
  0x5f, 0x69, 0x6e, 0x74, 0x38, 0x00, 0x00, 0x00, 0x04, 0x00, 0x00, 0x00,
  0x01, 0x00, 0x00, 0x00, 0x01, 0x00, 0x00, 0x00, 0x01, 0x00, 0x00, 0x00,
  0x04, 0x00, 0x00, 0x00, 0xb8, 0xef, 0xff, 0xff, 0x18, 0x00, 0x00, 0x00,
  0x28, 0x00, 0x00, 0x00, 0x60, 0x00, 0x00, 0x00, 0x0f, 0x00, 0x00, 0x00,
  0x00, 0x00, 0x00, 0x09, 0xcc, 0x00, 0x00, 0x00, 0x04, 0x00, 0x00, 0x00,
  0xff, 0xff, 0xff, 0xff, 0x01, 0x00, 0x00, 0x00, 0x01, 0x00, 0x00, 0x00,
  0x20, 0x00, 0x00, 0x00, 0xa4, 0xef, 0xff, 0xff, 0x10, 0x00, 0x00, 0x00,
  0x1c, 0x00, 0x00, 0x00, 0x20, 0x00, 0x00, 0x00, 0x24, 0x00, 0x00, 0x00,
  0x01, 0x00, 0x00, 0x00, 0x80, 0xff, 0xff, 0xff, 0xff, 0xff, 0xff, 0xff,
  0x00, 0x00, 0x00, 0x00, 0x01, 0x00, 0x00, 0x00, 0x77, 0x51, 0x16, 0x3d,
  0x01, 0x00, 0x00, 0x00, 0x26, 0xbb, 0x15, 0x41, 0x01, 0x00, 0x00, 0x00,
  0x00, 0x00, 0x00, 0x00, 0x73, 0x00, 0x00, 0x00, 0x50, 0x4e, 0x65, 0x74,
  0x2f, 0x50, 0x4e, 0x65, 0x74, 0x5f, 0x52, 0x45, 0x4c, 0x55, 0x33, 0x2f,
  0x52, 0x65, 0x6c, 0x75, 0x3b, 0x50, 0x4e, 0x65, 0x74, 0x2f, 0x50, 0x4e,
  0x65, 0x74, 0x5f, 0x43, 0x4f, 0x4e, 0x56, 0x33, 0x2f, 0x42, 0x69, 0x61,
  0x73, 0x41, 0x64, 0x64, 0x3b, 0x50, 0x4e, 0x65, 0x74, 0x2f, 0x50, 0x4e,
  0x65, 0x74, 0x5f, 0x43, 0x4f, 0x4e, 0x56, 0x33, 0x2f, 0x43, 0x6f, 0x6e,
  0x76, 0x32, 0x44, 0x3b, 0x50, 0x4e, 0x65, 0x74, 0x2f, 0x50, 0x4e, 0x65,
  0x74, 0x5f, 0x43, 0x4f, 0x4e, 0x56, 0x33, 0x2f, 0x42, 0x69, 0x61, 0x73,
  0x41, 0x64, 0x64, 0x2f, 0x52, 0x65, 0x61, 0x64, 0x56, 0x61, 0x72, 0x69,
  0x61, 0x62, 0x6c, 0x65, 0x4f, 0x70, 0x2f, 0x72, 0x65, 0x73, 0x6f, 0x75,
  0x72, 0x63, 0x65, 0x00, 0x04, 0x00, 0x00, 0x00, 0x01, 0x00, 0x00, 0x00,
  0x01, 0x00, 0x00, 0x00, 0x01, 0x00, 0x00, 0x00, 0x20, 0x00, 0x00, 0x00,
  0xb0, 0xf0, 0xff, 0xff, 0x18, 0x00, 0x00, 0x00, 0x28, 0x00, 0x00, 0x00,
  0x60, 0x00, 0x00, 0x00, 0x0e, 0x00, 0x00, 0x00, 0x00, 0x00, 0x00, 0x09,
  0xcc, 0x00, 0x00, 0x00, 0x04, 0x00, 0x00, 0x00, 0xff, 0xff, 0xff, 0xff,
  0x03, 0x00, 0x00, 0x00, 0x03, 0x00, 0x00, 0x00, 0x10, 0x00, 0x00, 0x00,
  0x9c, 0xf0, 0xff, 0xff, 0x10, 0x00, 0x00, 0x00, 0x1c, 0x00, 0x00, 0x00,
  0x20, 0x00, 0x00, 0x00, 0x24, 0x00, 0x00, 0x00, 0x01, 0x00, 0x00, 0x00,
  0x80, 0xff, 0xff, 0xff, 0xff, 0xff, 0xff, 0xff, 0x00, 0x00, 0x00, 0x00,
  0x01, 0x00, 0x00, 0x00, 0x5e, 0x36, 0xa4, 0x3c, 0x01, 0x00, 0x00, 0x00,
  0x28, 0x92, 0xa3, 0x40, 0x01, 0x00, 0x00, 0x00, 0x00, 0x00, 0x00, 0x00,
  0x73, 0x00, 0x00, 0x00, 0x50, 0x4e, 0x65, 0x74, 0x2f, 0x50, 0x4e, 0x65,
  0x74, 0x5f, 0x52, 0x45, 0x4c, 0x55, 0x32, 0x2f, 0x52, 0x65, 0x6c, 0x75,
  0x3b, 0x50, 0x4e, 0x65, 0x74, 0x2f, 0x50, 0x4e, 0x65, 0x74, 0x5f, 0x43,
  0x4f, 0x4e, 0x56, 0x32, 0x2f, 0x42, 0x69, 0x61, 0x73, 0x41, 0x64, 0x64,
  0x3b, 0x50, 0x4e, 0x65, 0x74, 0x2f, 0x50, 0x4e, 0x65, 0x74, 0x5f, 0x43,
  0x4f, 0x4e, 0x56, 0x32, 0x2f, 0x43, 0x6f, 0x6e, 0x76, 0x32, 0x44, 0x3b,
  0x50, 0x4e, 0x65, 0x74, 0x2f, 0x50, 0x4e, 0x65, 0x74, 0x5f, 0x43, 0x4f,
  0x4e, 0x56, 0x32, 0x2f, 0x42, 0x69, 0x61, 0x73, 0x41, 0x64, 0x64, 0x2f,
  0x52, 0x65, 0x61, 0x64, 0x56, 0x61, 0x72, 0x69, 0x61, 0x62, 0x6c, 0x65,
  0x4f, 0x70, 0x2f, 0x72, 0x65, 0x73, 0x6f, 0x75, 0x72, 0x63, 0x65, 0x00,
  0x04, 0x00, 0x00, 0x00, 0x01, 0x00, 0x00, 0x00, 0x03, 0x00, 0x00, 0x00,
  0x03, 0x00, 0x00, 0x00, 0x10, 0x00, 0x00, 0x00, 0xa8, 0xf1, 0xff, 0xff,
  0x18, 0x00, 0x00, 0x00, 0x28, 0x00, 0x00, 0x00, 0x60, 0x00, 0x00, 0x00,
  0x0d, 0x00, 0x00, 0x00, 0x00, 0x00, 0x00, 0x09, 0x74, 0x00, 0x00, 0x00,
  0x04, 0x00, 0x00, 0x00, 0xff, 0xff, 0xff, 0xff, 0x05, 0x00, 0x00, 0x00,
  0x05, 0x00, 0x00, 0x00, 0x0a, 0x00, 0x00, 0x00, 0x94, 0xf1, 0xff, 0xff,
  0x10, 0x00, 0x00, 0x00, 0x1c, 0x00, 0x00, 0x00, 0x20, 0x00, 0x00, 0x00,
  0x24, 0x00, 0x00, 0x00, 0x01, 0x00, 0x00, 0x00, 0x80, 0xff, 0xff, 0xff,
  0xff, 0xff, 0xff, 0xff, 0x00, 0x00, 0x00, 0x00, 0x01, 0x00, 0x00, 0x00,
  0x02, 0xaa, 0x2e, 0x3c, 0x01, 0x00, 0x00, 0x00, 0x58, 0xfb, 0x2d, 0x40,
  0x01, 0x00, 0x00, 0x00, 0x00, 0x00, 0x00, 0x00, 0x1a, 0x00, 0x00, 0x00,
  0x50, 0x4e, 0x65, 0x74, 0x2f, 0x50, 0x4e, 0x65, 0x74, 0x5f, 0x4d, 0x41,
  0x58, 0x50, 0x4f, 0x4f, 0x4c, 0x31, 0x2f, 0x4d, 0x61, 0x78, 0x50, 0x6f,
  0x6f, 0x6c, 0x00, 0x00, 0x04, 0x00, 0x00, 0x00, 0x01, 0x00, 0x00, 0x00,
  0x05, 0x00, 0x00, 0x00, 0x05, 0x00, 0x00, 0x00, 0x0a, 0x00, 0x00, 0x00,
  0x48, 0xf2, 0xff, 0xff, 0x18, 0x00, 0x00, 0x00, 0x28, 0x00, 0x00, 0x00,
  0x60, 0x00, 0x00, 0x00, 0x0c, 0x00, 0x00, 0x00, 0x00, 0x00, 0x00, 0x09,
  0xcc, 0x00, 0x00, 0x00, 0x04, 0x00, 0x00, 0x00, 0xff, 0xff, 0xff, 0xff,
  0x0a, 0x00, 0x00, 0x00, 0x0a, 0x00, 0x00, 0x00, 0x0a, 0x00, 0x00, 0x00,
  0x34, 0xf2, 0xff, 0xff, 0x10, 0x00, 0x00, 0x00, 0x1c, 0x00, 0x00, 0x00,
  0x20, 0x00, 0x00, 0x00, 0x24, 0x00, 0x00, 0x00, 0x01, 0x00, 0x00, 0x00,
  0x80, 0xff, 0xff, 0xff, 0xff, 0xff, 0xff, 0xff, 0x00, 0x00, 0x00, 0x00,
  0x01, 0x00, 0x00, 0x00, 0x02, 0xaa, 0x2e, 0x3c, 0x01, 0x00, 0x00, 0x00,
  0x58, 0xfb, 0x2d, 0x40, 0x01, 0x00, 0x00, 0x00, 0x00, 0x00, 0x00, 0x00,
  0x73, 0x00, 0x00, 0x00, 0x50, 0x4e, 0x65, 0x74, 0x2f, 0x50, 0x4e, 0x65,
  0x74, 0x5f, 0x52, 0x45, 0x4c, 0x55, 0x31, 0x2f, 0x52, 0x65, 0x6c, 0x75,
  0x3b, 0x50, 0x4e, 0x65, 0x74, 0x2f, 0x50, 0x4e, 0x65, 0x74, 0x5f, 0x43,
  0x4f, 0x4e, 0x56, 0x31, 0x2f, 0x42, 0x69, 0x61, 0x73, 0x41, 0x64, 0x64,
  0x3b, 0x50, 0x4e, 0x65, 0x74, 0x2f, 0x50, 0x4e, 0x65, 0x74, 0x5f, 0x43,
  0x4f, 0x4e, 0x56, 0x31, 0x2f, 0x43, 0x6f, 0x6e, 0x76, 0x32, 0x44, 0x3b,
  0x50, 0x4e, 0x65, 0x74, 0x2f, 0x50, 0x4e, 0x65, 0x74, 0x5f, 0x43, 0x4f,
  0x4e, 0x56, 0x31, 0x2f, 0x42, 0x69, 0x61, 0x73, 0x41, 0x64, 0x64, 0x2f,
  0x52, 0x65, 0x61, 0x64, 0x56, 0x61, 0x72, 0x69, 0x61, 0x62, 0x6c, 0x65,
  0x4f, 0x70, 0x2f, 0x72, 0x65, 0x73, 0x6f, 0x75, 0x72, 0x63, 0x65, 0x00,
  0x04, 0x00, 0x00, 0x00, 0x01, 0x00, 0x00, 0x00, 0x0a, 0x00, 0x00, 0x00,
  0x0a, 0x00, 0x00, 0x00, 0x0a, 0x00, 0x00, 0x00, 0x3a, 0xf4, 0xff, 0xff,
  0x14, 0x00, 0x00, 0x00, 0x3c, 0x00, 0x00, 0x00, 0x0b, 0x00, 0x00, 0x00,
  0x00, 0x00, 0x00, 0x02, 0x94, 0x00, 0x00, 0x00, 0x2c, 0xf4, 0xff, 0xff,
  0x08, 0x00, 0x00, 0x00, 0x18, 0x00, 0x00, 0x00, 0x02, 0x00, 0x00, 0x00,
  0x00, 0x00, 0x00, 0x00, 0x00, 0x00, 0x00, 0x00, 0x00, 0x00, 0x00, 0x00,
  0x00, 0x00, 0x00, 0x00, 0x02, 0x00, 0x00, 0x00, 0x78, 0xf8, 0x9a, 0x39,
  0xfd, 0x17, 0x93, 0x39, 0x5e, 0x00, 0x00, 0x00, 0x50, 0x4e, 0x65, 0x74,
  0x2f, 0x50, 0x4e, 0x65, 0x74, 0x5f, 0x43, 0x4f, 0x4e, 0x56, 0x34, 0x2f,
  0x42, 0x69, 0x61, 0x73, 0x41, 0x64, 0x64, 0x3b, 0x50, 0x4e, 0x65, 0x74,
  0x2f, 0x50, 0x4e, 0x65, 0x74, 0x5f, 0x43, 0x4f, 0x4e, 0x56, 0x34, 0x2f,
  0x43, 0x6f, 0x6e, 0x76, 0x32, 0x44, 0x3b, 0x50, 0x4e, 0x65, 0x74, 0x2f,
  0x50, 0x4e, 0x65, 0x74, 0x5f, 0x43, 0x4f, 0x4e, 0x56, 0x34, 0x2f, 0x42,
  0x69, 0x61, 0x73, 0x41, 0x64, 0x64, 0x2f, 0x52, 0x65, 0x61, 0x64, 0x56,
  0x61, 0x72, 0x69, 0x61, 0x62, 0x6c, 0x65, 0x4f, 0x70, 0x2f, 0x72, 0x65,
  0x73, 0x6f, 0x75, 0x72, 0x63, 0x65, 0x00, 0x00, 0x01, 0x00, 0x00, 0x00,
  0x02, 0x00, 0x00, 0x00, 0xea, 0xf4, 0xff, 0xff, 0x14, 0x00, 0x00, 0x00,
  0x54, 0x00, 0x00, 0x00, 0x0a, 0x00, 0x00, 0x00, 0x00, 0x00, 0x00, 0x02,
  0xb4, 0x00, 0x00, 0x00, 0xdc, 0xf4, 0xff, 0xff, 0x08, 0x00, 0x00, 0x00,
  0x28, 0x00, 0x00, 0x00, 0x04, 0x00, 0x00, 0x00, 0x00, 0x00, 0x00, 0x00,
  0x00, 0x00, 0x00, 0x00, 0x00, 0x00, 0x00, 0x00, 0x00, 0x00, 0x00, 0x00,
  0x00, 0x00, 0x00, 0x00, 0x00, 0x00, 0x00, 0x00, 0x00, 0x00, 0x00, 0x00,
  0x00, 0x00, 0x00, 0x00, 0x04, 0x00, 0x00, 0x00, 0x0a, 0x14, 0xb8, 0x38,
  0xd7, 0xf8, 0xa0, 0x38, 0x85, 0x81, 0xae, 0x38, 0x22, 0x6c, 0x76, 0x38,
  0x67, 0x00, 0x00, 0x00, 0x50, 0x4e, 0x65, 0x74, 0x2f, 0x42, 0x42, 0x5f,
  0x52, 0x45, 0x47, 0x52, 0x45, 0x53, 0x53, 0x49, 0x4f, 0x4e, 0x2f, 0x42,
  0x69, 0x61, 0x73, 0x41, 0x64, 0x64, 0x3b, 0x50, 0x4e, 0x65, 0x74, 0x2f,
  0x42, 0x42, 0x5f, 0x52, 0x45, 0x47, 0x52, 0x45, 0x53, 0x53, 0x49, 0x4f,
  0x4e, 0x2f, 0x43, 0x6f, 0x6e, 0x76, 0x32, 0x44, 0x3b, 0x50, 0x4e, 0x65,
  0x74, 0x2f, 0x42, 0x42, 0x5f, 0x52, 0x45, 0x47, 0x52, 0x45, 0x53, 0x53,
  0x49, 0x4f, 0x4e, 0x2f, 0x42, 0x69, 0x61, 0x73, 0x41, 0x64, 0x64, 0x2f,
  0x52, 0x65, 0x61, 0x64, 0x56, 0x61, 0x72, 0x69, 0x61, 0x62, 0x6c, 0x65,
  0x4f, 0x70, 0x2f, 0x72, 0x65, 0x73, 0x6f, 0x75, 0x72, 0x63, 0x65, 0x00,
  0x01, 0x00, 0x00, 0x00, 0x04, 0x00, 0x00, 0x00, 0xba, 0xf5, 0xff, 0xff,
  0x14, 0x00, 0x00, 0x00, 0x60, 0x00, 0x00, 0x00, 0x09, 0x00, 0x00, 0x00,
  0x00, 0x00, 0x00, 0x09, 0x70, 0x00, 0x00, 0x00, 0x94, 0xf4, 0xff, 0xff,
  0x10, 0x00, 0x00, 0x00, 0x24, 0x00, 0x00, 0x00, 0x2c, 0x00, 0x00, 0x00,
  0x34, 0x00, 0x00, 0x00, 0x02, 0x00, 0x00, 0x00, 0x00, 0x00, 0x00, 0x00,
  0x00, 0x00, 0x00, 0x00, 0x00, 0x00, 0x00, 0x00, 0x00, 0x00, 0x00, 0x00,
  0x00, 0x00, 0x00, 0x00, 0x02, 0x00, 0x00, 0x00, 0x2c, 0xf6, 0x03, 0x3c,
  0x2c, 0x82, 0xfa, 0x3b, 0x02, 0x00, 0x00, 0x00, 0x40, 0xee, 0x82, 0x3f,
  0x29, 0xb1, 0x56, 0x3f, 0x02, 0x00, 0x00, 0x00, 0xc6, 0x83, 0x37, 0xbf,
  0x28, 0x8d, 0x78, 0xbf, 0x16, 0x00, 0x00, 0x00, 0x50, 0x4e, 0x65, 0x74,
  0x2f, 0x50, 0x4e, 0x65, 0x74, 0x5f, 0x43, 0x4f, 0x4e, 0x56, 0x34, 0x2f,
  0x43, 0x6f, 0x6e, 0x76, 0x32, 0x44, 0x00, 0x00, 0x04, 0x00, 0x00, 0x00,
  0x02, 0x00, 0x00, 0x00, 0x01, 0x00, 0x00, 0x00, 0x01, 0x00, 0x00, 0x00,
  0x20, 0x00, 0x00, 0x00, 0x52, 0xf6, 0xff, 0xff, 0x14, 0x00, 0x00, 0x00,
  0x84, 0x00, 0x00, 0x00, 0x08, 0x00, 0x00, 0x00, 0x00, 0x00, 0x00, 0x09,
  0x98, 0x00, 0x00, 0x00, 0x2c, 0xf5, 0xff, 0xff, 0x10, 0x00, 0x00, 0x00,
  0x30, 0x00, 0x00, 0x00, 0x40, 0x00, 0x00, 0x00, 0x50, 0x00, 0x00, 0x00,
  0x04, 0x00, 0x00, 0x00, 0x00, 0x00, 0x00, 0x00, 0x00, 0x00, 0x00, 0x00,
  0x00, 0x00, 0x00, 0x00, 0x00, 0x00, 0x00, 0x00, 0x00, 0x00, 0x00, 0x00,
  0x00, 0x00, 0x00, 0x00, 0x00, 0x00, 0x00, 0x00, 0x00, 0x00, 0x00, 0x00,
  0x04, 0x00, 0x00, 0x00, 0x62, 0xbf, 0x1c, 0x3b, 0x6f, 0x12, 0x09, 0x3b,
  0xb3, 0x98, 0x14, 0x3b, 0xd5, 0xd5, 0xd1, 0x3a, 0x04, 0x00, 0x00, 0x00,
  0xe3, 0x85, 0x9b, 0x3e, 0x4a, 0x00, 0x88, 0x3e, 0x3d, 0xbd, 0xb6, 0x3d,
  0x29, 0x32, 0x50, 0x3e, 0x04, 0x00, 0x00, 0x00, 0x04, 0x71, 0xbe, 0xbd,
  0x93, 0xd5, 0x6c, 0xbe, 0x82, 0x6f, 0x93, 0xbe, 0xd5, 0xf7, 0xcc, 0xbd,
  0x19, 0x00, 0x00, 0x00, 0x50, 0x4e, 0x65, 0x74, 0x2f, 0x42, 0x42, 0x5f,
  0x52, 0x45, 0x47, 0x52, 0x45, 0x53, 0x53, 0x49, 0x4f, 0x4e, 0x2f, 0x43,
  0x6f, 0x6e, 0x76, 0x32, 0x44, 0x00, 0x00, 0x00, 0x04, 0x00, 0x00, 0x00,
  0x04, 0x00, 0x00, 0x00, 0x01, 0x00, 0x00, 0x00, 0x01, 0x00, 0x00, 0x00,
  0x20, 0x00, 0x00, 0x00, 0x12, 0xf7, 0xff, 0xff, 0x14, 0x00, 0x00, 0x00,
  0xb8, 0x02, 0x00, 0x00, 0x07, 0x00, 0x00, 0x00, 0x00, 0x00, 0x00, 0x09,
  0xc8, 0x02, 0x00, 0x00, 0xec, 0xf5, 0xff, 0xff, 0x10, 0x00, 0x00, 0x00,
  0x14, 0x01, 0x00, 0x00, 0x94, 0x01, 0x00, 0x00, 0x14, 0x02, 0x00, 0x00,
  0x20, 0x00, 0x00, 0x00, 0x00, 0x00, 0x00, 0x00, 0x00, 0x00, 0x00, 0x00,
  0x00, 0x00, 0x00, 0x00, 0x00, 0x00, 0x00, 0x00, 0x00, 0x00, 0x00, 0x00,
  0x00, 0x00, 0x00, 0x00, 0x00, 0x00, 0x00, 0x00, 0x00, 0x00, 0x00, 0x00,
  0x00, 0x00, 0x00, 0x00, 0x00, 0x00, 0x00, 0x00, 0x00, 0x00, 0x00, 0x00,
  0x00, 0x00, 0x00, 0x00, 0x00, 0x00, 0x00, 0x00, 0x00, 0x00, 0x00, 0x00,
  0x00, 0x00, 0x00, 0x00, 0x00, 0x00, 0x00, 0x00, 0x00, 0x00, 0x00, 0x00,
  0x00, 0x00, 0x00, 0x00, 0x00, 0x00, 0x00, 0x00, 0x00, 0x00, 0x00, 0x00,
  0x00, 0x00, 0x00, 0x00, 0x00, 0x00, 0x00, 0x00, 0x00, 0x00, 0x00, 0x00,
  0x00, 0x00, 0x00, 0x00, 0x00, 0x00, 0x00, 0x00, 0x00, 0x00, 0x00, 0x00,
  0x00, 0x00, 0x00, 0x00, 0x00, 0x00, 0x00, 0x00, 0x00, 0x00, 0x00, 0x00,
  0x00, 0x00, 0x00, 0x00, 0x00, 0x00, 0x00, 0x00, 0x00, 0x00, 0x00, 0x00,
  0x00, 0x00, 0x00, 0x00, 0x00, 0x00, 0x00, 0x00, 0x00, 0x00, 0x00, 0x00,
  0x00, 0x00, 0x00, 0x00, 0x00, 0x00, 0x00, 0x00, 0x00, 0x00, 0x00, 0x00,
  0x00, 0x00, 0x00, 0x00, 0x00, 0x00, 0x00, 0x00, 0x00, 0x00, 0x00, 0x00,
  0x00, 0x00, 0x00, 0x00, 0x00, 0x00, 0x00, 0x00, 0x00, 0x00, 0x00, 0x00,
  0x00, 0x00, 0x00, 0x00, 0x00, 0x00, 0x00, 0x00, 0x00, 0x00, 0x00, 0x00,
  0x00, 0x00, 0x00, 0x00, 0x00, 0x00, 0x00, 0x00, 0x00, 0x00, 0x00, 0x00,
  0x00, 0x00, 0x00, 0x00, 0x00, 0x00, 0x00, 0x00, 0x00, 0x00, 0x00, 0x00,
  0x00, 0x00, 0x00, 0x00, 0x00, 0x00, 0x00, 0x00, 0x00, 0x00, 0x00, 0x00,
  0x00, 0x00, 0x00, 0x00, 0x00, 0x00, 0x00, 0x00, 0x00, 0x00, 0x00, 0x00,
  0x00, 0x00, 0x00, 0x00, 0x00, 0x00, 0x00, 0x00, 0x00, 0x00, 0x00, 0x00,
  0x00, 0x00, 0x00, 0x00, 0x00, 0x00, 0x00, 0x00, 0x00, 0x00, 0x00, 0x00,
  0x20, 0x00, 0x00, 0x00, 0xa1, 0x27, 0xdc, 0x3b, 0x3e, 0x33, 0xd7, 0x3b,
  0x51, 0x0c, 0xd0, 0x3b, 0xa4, 0x2b, 0xe0, 0x3b, 0x0b, 0x2a, 0xe6, 0x3b,
  0x7b, 0x53, 0xbb, 0x3a, 0x84, 0x6a, 0x0d, 0x3c, 0xe4, 0xcc, 0xf9, 0x3b,
  0xb7, 0x8a, 0x21, 0x3c, 0x49, 0x2e, 0x02, 0x3c, 0xd3, 0x66, 0xf3, 0x3b,
  0x73, 0x58, 0xea, 0x3b, 0x70, 0x87, 0x88, 0x3b, 0xaa, 0x09, 0xbf, 0x3b,
  0x7a, 0x5d, 0x2b, 0x3c, 0x49, 0xed, 0xc4, 0x3a, 0x55, 0x10, 0xb7, 0x3b,
  0xc6, 0x71, 0x86, 0x3b, 0x84, 0xf4, 0xcc, 0x3b, 0x28, 0xfd, 0xfc, 0x3b,
  0x91, 0xa6, 0x35, 0x3c, 0xf3, 0x0d, 0x37, 0x3c, 0x74, 0x9e, 0xf7, 0x3b,
  0xfd, 0xbf, 0x28, 0x3b, 0xcb, 0xf5, 0xd4, 0x3b, 0xf4, 0x7d, 0x18, 0x3c,
  0xe9, 0xff, 0x09, 0x3c, 0xf2, 0x5a, 0x03, 0x3c, 0x9c, 0x8a, 0xe3, 0x3b,
  0x7a, 0x0c, 0x41, 0x3c, 0x73, 0xf0, 0x1e, 0x3c, 0xb7, 0xa2, 0xb0, 0x3a,
  0x20, 0x00, 0x00, 0x00, 0xd3, 0x05, 0x37, 0x3f, 0x5f, 0x1b, 0x44, 0x3f,
  0xf1, 0x2c, 0x1d, 0x3f, 0x7d, 0xc8, 0x40, 0x3f, 0x0e, 0xfe, 0x29, 0x3f,
  0xfd, 0x46, 0x09, 0x3e, 0x55, 0x5e, 0x2e, 0x3f, 0x4a, 0xd9, 0x77, 0x3f,
  0xc0, 0x60, 0x1e, 0x3f, 0xee, 0x4a, 0x39, 0x3f, 0x05, 0x80, 0x71, 0x3f,
  0xde, 0x49, 0x33, 0x3f, 0x61, 0x76, 0x07, 0x3f, 0xd1, 0xe4, 0x34, 0x3f,
  0xed, 0xbe, 0x31, 0x3f, 0x27, 0x64, 0xed, 0x3d, 0x32, 0xac, 0x03, 0x3f,
  0xe2, 0x64, 0x05, 0x3f, 0x9b, 0x5a, 0x4b, 0x3f, 0xcc, 0xb6, 0x0c, 0x3f,
  0xb3, 0x40, 0x51, 0x3f, 0x37, 0x76, 0x55, 0x3f, 0xee, 0x9a, 0x3b, 0x3f,
  0xe5, 0x84, 0x83, 0x3e, 0x97, 0x47, 0x1f, 0x3f, 0xe8, 0x11, 0x45, 0x3f,
  0xc2, 0x53, 0x16, 0x3f, 0x3c, 0x54, 0x82, 0x3f, 0x87, 0xc3, 0x61, 0x3f,
  0x8a, 0xc6, 0x4c, 0x3f, 0xda, 0x26, 0x47, 0x3f, 0x09, 0x03, 0xde, 0x3d,
  0x20, 0x00, 0x00, 0x00, 0x52, 0x6f, 0x5a, 0xbf, 0xd8, 0x84, 0x55, 0xbf,
  0x38, 0x6c, 0x4e, 0xbf, 0x4d, 0x6b, 0x5e, 0xbf, 0xb7, 0x5d, 0x64, 0xbf,
  0xd4, 0xdc, 0x39, 0xbe, 0xaf, 0x4f, 0x8c, 0xbf, 0x87, 0x04, 0x2d, 0xbf,
  0xa2, 0x47, 0xa0, 0xbf, 0xec, 0x29, 0x81, 0xbf, 0x7e, 0x86, 0x60, 0xbf,
  0xc2, 0x83, 0x68, 0xbf, 0xf9, 0x10, 0xb1, 0xbe, 0x97, 0x8b, 0x3d, 0xbf,
  0xbf, 0x06, 0xaa, 0xbf, 0x6e, 0x63, 0x43, 0xbe, 0x34, 0xa2, 0x35, 0xbf,
  0xf8, 0x8c, 0xca, 0xbe, 0xe5, 0x06, 0x3d, 0xbf, 0x2e, 0x03, 0x7b, 0xbf,
  0x44, 0x3b, 0xb4, 0xbf, 0xd7, 0x9f, 0xb5, 0xbf, 0x37, 0xaf, 0x75, 0xbf,
  0x7d, 0x6e, 0xa7, 0xbe, 0xdf, 0x4b, 0x53, 0xbf, 0xf8, 0x4c, 0x97, 0xbf,
  0xe9, 0xeb, 0x88, 0xbf, 0x49, 0x1d, 0x63, 0xbf, 0xc5, 0xef, 0x2d, 0xbf,
  0x61, 0x8a, 0xbf, 0xbf, 0x92, 0xb2, 0x9d, 0xbf, 0x72, 0x41, 0x2f, 0xbe,
  0x16, 0x00, 0x00, 0x00, 0x50, 0x4e, 0x65, 0x74, 0x2f, 0x50, 0x4e, 0x65,
  0x74, 0x5f, 0x43, 0x4f, 0x4e, 0x56, 0x33, 0x2f, 0x43, 0x6f, 0x6e, 0x76,
  0x32, 0x44, 0x00, 0x00, 0x04, 0x00, 0x00, 0x00, 0x20, 0x00, 0x00, 0x00,
  0x03, 0x00, 0x00, 0x00, 0x03, 0x00, 0x00, 0x00, 0x10, 0x00, 0x00, 0x00,
  0x02, 0xfa, 0xff, 0xff, 0x14, 0x00, 0x00, 0x00, 0x78, 0x01, 0x00, 0x00,
  0x06, 0x00, 0x00, 0x00, 0x00, 0x00, 0x00, 0x09, 0x88, 0x01, 0x00, 0x00,
  0xdc, 0xf8, 0xff, 0xff, 0x10, 0x00, 0x00, 0x00, 0x94, 0x00, 0x00, 0x00,
  0xd4, 0x00, 0x00, 0x00, 0x14, 0x01, 0x00, 0x00, 0x10, 0x00, 0x00, 0x00,
  0x00, 0x00, 0x00, 0x00, 0x00, 0x00, 0x00, 0x00, 0x00, 0x00, 0x00, 0x00,
  0x00, 0x00, 0x00, 0x00, 0x00, 0x00, 0x00, 0x00, 0x00, 0x00, 0x00, 0x00,
  0x00, 0x00, 0x00, 0x00, 0x00, 0x00, 0x00, 0x00, 0x00, 0x00, 0x00, 0x00,
  0x00, 0x00, 0x00, 0x00, 0x00, 0x00, 0x00, 0x00, 0x00, 0x00, 0x00, 0x00,
  0x00, 0x00, 0x00, 0x00, 0x00, 0x00, 0x00, 0x00, 0x00, 0x00, 0x00, 0x00,
  0x00, 0x00, 0x00, 0x00, 0x00, 0x00, 0x00, 0x00, 0x00, 0x00, 0x00, 0x00,
  0x00, 0x00, 0x00, 0x00, 0x00, 0x00, 0x00, 0x00, 0x00, 0x00, 0x00, 0x00,
  0x00, 0x00, 0x00, 0x00, 0x00, 0x00, 0x00, 0x00, 0x00, 0x00, 0x00, 0x00,
  0x00, 0x00, 0x00, 0x00, 0x00, 0x00, 0x00, 0x00, 0x00, 0x00, 0x00, 0x00,
  0x00, 0x00, 0x00, 0x00, 0x00, 0x00, 0x00, 0x00, 0x00, 0x00, 0x00, 0x00,
  0x00, 0x00, 0x00, 0x00, 0x00, 0x00, 0x00, 0x00, 0x00, 0x00, 0x00, 0x00,
  0x10, 0x00, 0x00, 0x00, 0xbf, 0x2f, 0x0c, 0x3c, 0xc7, 0x8a, 0x38, 0x3c,
  0x00, 0xd3, 0x16, 0x3c, 0xe5, 0xc5, 0xcb, 0x3b, 0x25, 0xdb, 0xc0, 0x3b,
  0xb1, 0xd2, 0xc3, 0x3b, 0xff, 0x17, 0x5d, 0x3c, 0xe7, 0xf9, 0x16, 0x3c,
  0xbf, 0x36, 0x99, 0x3b, 0x74, 0xec, 0xd6, 0x3b, 0x91, 0xfd, 0x3b, 0x3c,
  0x5b, 0xc3, 0xf8, 0x3b, 0xff, 0xee, 0xc6, 0x3b, 0x60, 0x90, 0x0d, 0x3c,
  0xfd, 0xa2, 0x07, 0x3c, 0x7e, 0x05, 0x17, 0x3c, 0x10, 0x00, 0x00, 0x00,
  0xb9, 0xed, 0x25, 0x3f, 0x1c, 0x62, 0x47, 0x3f, 0x20, 0x05, 0x50, 0x3f,
  0x87, 0x2e, 0x2a, 0x3f, 0x37, 0x5e, 0x2c, 0x3f, 0x0c, 0x4b, 0x42, 0x3f,
  0x62, 0xe8, 0x1a, 0x3f, 0xa0, 0xcd, 0x28, 0x3f, 0xe5, 0x5f, 0x05, 0x3f,
  0x5f, 0x5c, 0x0e, 0x3f, 0x87, 0xff, 0x32, 0x3f, 0x4e, 0xe3, 0x55, 0x3f,
  0xac, 0x99, 0x29, 0x3f, 0xd4, 0xef, 0x46, 0x3f, 0xee, 0x41, 0x3a, 0x3f,
  0x9b, 0x1e, 0x0b, 0x3f, 0x10, 0x00, 0x00, 0x00, 0x60, 0x17, 0x8b, 0xbf,
  0xb1, 0x19, 0xb7, 0xbf, 0x5a, 0xa5, 0x95, 0xbf, 0x59, 0x2e, 0x4a, 0xbf,
  0x6f, 0x59, 0x3f, 0xbf, 0x8b, 0x3a, 0x36, 0xbf, 0xcf, 0x5d, 0xdb, 0xbf,
  0xf3, 0xcb, 0x95, 0xbf, 0x52, 0x04, 0x18, 0xbf, 0x9b, 0x3e, 0x55, 0xbf,
  0x96, 0x85, 0xba, 0xbf, 0xd4, 0xd1, 0x76, 0xbf, 0x21, 0x61, 0x45, 0xbf,
  0x3f, 0x75, 0x8c, 0xbf, 0xb7, 0x93, 0x86, 0xbf, 0x73, 0xd7, 0x95, 0xbf,
  0x16, 0x00, 0x00, 0x00, 0x50, 0x4e, 0x65, 0x74, 0x2f, 0x50, 0x4e, 0x65,
  0x74, 0x5f, 0x43, 0x4f, 0x4e, 0x56, 0x32, 0x2f, 0x43, 0x6f, 0x6e, 0x76,
  0x32, 0x44, 0x00, 0x00, 0x04, 0x00, 0x00, 0x00, 0x10, 0x00, 0x00, 0x00,
  0x03, 0x00, 0x00, 0x00, 0x03, 0x00, 0x00, 0x00, 0x0a, 0x00, 0x00, 0x00,
  0xb2, 0xfb, 0xff, 0xff, 0x14, 0x00, 0x00, 0x00, 0x00, 0x01, 0x00, 0x00,
  0x05, 0x00, 0x00, 0x00, 0x00, 0x00, 0x00, 0x09, 0x10, 0x01, 0x00, 0x00,
  0x8c, 0xfa, 0xff, 0xff, 0x10, 0x00, 0x00, 0x00, 0x64, 0x00, 0x00, 0x00,
  0x8c, 0x00, 0x00, 0x00, 0xb4, 0x00, 0x00, 0x00, 0x0a, 0x00, 0x00, 0x00,
  0x00, 0x00, 0x00, 0x00, 0x00, 0x00, 0x00, 0x00, 0x00, 0x00, 0x00, 0x00,
  0x00, 0x00, 0x00, 0x00, 0x00, 0x00, 0x00, 0x00, 0x00, 0x00, 0x00, 0x00,
  0x00, 0x00, 0x00, 0x00, 0x00, 0x00, 0x00, 0x00, 0x00, 0x00, 0x00, 0x00,
  0x00, 0x00, 0x00, 0x00, 0x00, 0x00, 0x00, 0x00, 0x00, 0x00, 0x00, 0x00,
  0x00, 0x00, 0x00, 0x00, 0x00, 0x00, 0x00, 0x00, 0x00, 0x00, 0x00, 0x00,
  0x00, 0x00, 0x00, 0x00, 0x00, 0x00, 0x00, 0x00, 0x00, 0x00, 0x00, 0x00,
  0x00, 0x00, 0x00, 0x00, 0x00, 0x00, 0x00, 0x00, 0x00, 0x00, 0x00, 0x00,
  0x0a, 0x00, 0x00, 0x00, 0x65, 0xc9, 0x91, 0x3b, 0x73, 0xef, 0x84, 0x3b,
  0x9b, 0x15, 0x7b, 0x3b, 0x64, 0x6e, 0x87, 0x3b, 0xf3, 0xa9, 0xb0, 0x3b,
  0x82, 0x5a, 0x92, 0x3b, 0x7a, 0xf8, 0x9c, 0x3b, 0x7d, 0x00, 0xc8, 0x3b,
  0xd6, 0x55, 0x9d, 0x3b, 0x17, 0x63, 0x9d, 0x3b, 0x0a, 0x00, 0x00, 0x00,
  0x4f, 0x81, 0xe8, 0x3e, 0x35, 0x51, 0xe1, 0x3e, 0xca, 0x7f, 0xce, 0x3e,
  0xa8, 0x54, 0xe0, 0x3e, 0x58, 0xe7, 0xb9, 0x3e, 0xcd, 0x35, 0x11, 0x3f,
  0x47, 0xab, 0xf8, 0x3e, 0xfe, 0xef, 0xe4, 0x3e, 0xcc, 0xaf, 0xc6, 0x3e,
  0x71, 0xf8, 0x14, 0x3f, 0x0a, 0x00, 0x00, 0x00, 0xd2, 0xa5, 0x10, 0xbf,
  0x94, 0xe5, 0x03, 0xbf, 0x70, 0x1f, 0xf9, 0xbe, 0x87, 0x5f, 0x06, 0xbf,
  0x9f, 0x48, 0x2f, 0xbf, 0x85, 0x79, 0x01, 0xbf, 0x89, 0xbe, 0x1b, 0xbf,
  0x7c, 0x70, 0x46, 0xbf, 0x2a, 0x1b, 0x1c, 0xbf, 0x51, 0x28, 0x1c, 0xbf,
  0x16, 0x00, 0x00, 0x00, 0x50, 0x4e, 0x65, 0x74, 0x2f, 0x50, 0x4e, 0x65,
  0x74, 0x5f, 0x43, 0x4f, 0x4e, 0x56, 0x31, 0x2f, 0x43, 0x6f, 0x6e, 0x76,
  0x32, 0x44, 0x00, 0x00, 0x04, 0x00, 0x00, 0x00, 0x0a, 0x00, 0x00, 0x00,
  0x03, 0x00, 0x00, 0x00, 0x03, 0x00, 0x00, 0x00, 0x03, 0x00, 0x00, 0x00,
  0xea, 0xfc, 0xff, 0xff, 0x14, 0x00, 0x00, 0x00, 0xa4, 0x01, 0x00, 0x00,
  0x04, 0x00, 0x00, 0x00, 0x00, 0x00, 0x00, 0x02, 0xcc, 0x01, 0x00, 0x00,
  0xdc, 0xfc, 0xff, 0xff, 0x08, 0x00, 0x00, 0x00, 0x08, 0x01, 0x00, 0x00,
  0x20, 0x00, 0x00, 0x00, 0x00, 0x00, 0x00, 0x00, 0x00, 0x00, 0x00, 0x00,
  0x00, 0x00, 0x00, 0x00, 0x00, 0x00, 0x00, 0x00, 0x00, 0x00, 0x00, 0x00,
  0x00, 0x00, 0x00, 0x00, 0x00, 0x00, 0x00, 0x00, 0x00, 0x00, 0x00, 0x00,
  0x00, 0x00, 0x00, 0x00, 0x00, 0x00, 0x00, 0x00, 0x00, 0x00, 0x00, 0x00,
  0x00, 0x00, 0x00, 0x00, 0x00, 0x00, 0x00, 0x00, 0x00, 0x00, 0x00, 0x00,
  0x00, 0x00, 0x00, 0x00, 0x00, 0x00, 0x00, 0x00, 0x00, 0x00, 0x00, 0x00,
  0x00, 0x00, 0x00, 0x00, 0x00, 0x00, 0x00, 0x00, 0x00, 0x00, 0x00, 0x00,
  0x00, 0x00, 0x00, 0x00, 0x00, 0x00, 0x00, 0x00, 0x00, 0x00, 0x00, 0x00,
  0x00, 0x00, 0x00, 0x00, 0x00, 0x00, 0x00, 0x00, 0x00, 0x00, 0x00, 0x00,
  0x00, 0x00, 0x00, 0x00, 0x00, 0x00, 0x00, 0x00, 0x00, 0x00, 0x00, 0x00,
  0x00, 0x00, 0x00, 0x00, 0x00, 0x00, 0x00, 0x00, 0x00, 0x00, 0x00, 0x00,
  0x00, 0x00, 0x00, 0x00, 0x00, 0x00, 0x00, 0x00, 0x00, 0x00, 0x00, 0x00,
  0x00, 0x00, 0x00, 0x00, 0x00, 0x00, 0x00, 0x00, 0x00, 0x00, 0x00, 0x00,
  0x00, 0x00, 0x00, 0x00, 0x00, 0x00, 0x00, 0x00, 0x00, 0x00, 0x00, 0x00,
  0x00, 0x00, 0x00, 0x00, 0x00, 0x00, 0x00, 0x00, 0x00, 0x00, 0x00, 0x00,
  0x00, 0x00, 0x00, 0x00, 0x00, 0x00, 0x00, 0x00, 0x00, 0x00, 0x00, 0x00,
  0x00, 0x00, 0x00, 0x00, 0x00, 0x00, 0x00, 0x00, 0x00, 0x00, 0x00, 0x00,
  0x00, 0x00, 0x00, 0x00, 0x00, 0x00, 0x00, 0x00, 0x00, 0x00, 0x00, 0x00,
  0x00, 0x00, 0x00, 0x00, 0x00, 0x00, 0x00, 0x00, 0x00, 0x00, 0x00, 0x00,
  0x00, 0x00, 0x00, 0x00, 0x00, 0x00, 0x00, 0x00, 0x00, 0x00, 0x00, 0x00,
  0x00, 0x00, 0x00, 0x00, 0x00, 0x00, 0x00, 0x00, 0x00, 0x00, 0x00, 0x00,
  0x00, 0x00, 0x00, 0x00, 0x00, 0x00, 0x00, 0x00, 0x20, 0x00, 0x00, 0x00,
  0x24, 0x38, 0x0d, 0x39, 0x88, 0x0a, 0x0a, 0x39, 0x13, 0x74, 0x05, 0x39,
  0x91, 0xcb, 0x0f, 0x39, 0xd0, 0xa3, 0x13, 0x39, 0x86, 0x52, 0xf0, 0x37,
  0x8a, 0x6c, 0x35, 0x39, 0x4f, 0x3c, 0x20, 0x39, 0x58, 0x3e, 0x4f, 0x39,
  0x99, 0x02, 0x27, 0x39, 0x90, 0x21, 0x1c, 0x39, 0x6e, 0x52, 0x16, 0x39,
  0x85, 0x27, 0xaf, 0x38, 0x86, 0x15, 0xf5, 0x38, 0x8e, 0xd8, 0x5b, 0x39,
  0xaa, 0xa3, 0xfc, 0x37, 0xae, 0xda, 0xea, 0x38, 0xe0, 0x7a, 0xac, 0x38,
  0x2b, 0x78, 0x03, 0x39, 0xe8, 0x47, 0x22, 0x39, 0x91, 0x0a, 0x69, 0x39,
  0xa0, 0xd7, 0x6a, 0x39, 0x19, 0xd6, 0x1e, 0x39, 0xa9, 0x7d, 0x58, 0x38,
  0xb0, 0x9a, 0x08, 0x39, 0x26, 0xa2, 0x43, 0x39, 0x80, 0x0a, 0x31, 0x39,
  0x51, 0x84, 0x28, 0x39, 0x1f, 0xf5, 0x11, 0x39, 0xfb, 0xa9, 0x77, 0x39,
  0x96, 0xe7, 0x4b, 0x39, 0x81, 0x9b, 0xe2, 0x37, 0x2f, 0x00, 0x00, 0x00,
  0x50, 0x4e, 0x65, 0x74, 0x2f, 0x50, 0x4e, 0x65, 0x74, 0x5f, 0x43, 0x4f,
  0x4e, 0x56, 0x33, 0x2f, 0x42, 0x69, 0x61, 0x73, 0x41, 0x64, 0x64, 0x2f,
  0x52, 0x65, 0x61, 0x64, 0x56, 0x61, 0x72, 0x69, 0x61, 0x62, 0x6c, 0x65,
  0x4f, 0x70, 0x2f, 0x72, 0x65, 0x73, 0x6f, 0x75, 0x72, 0x63, 0x65, 0x00,
  0x01, 0x00, 0x00, 0x00, 0x20, 0x00, 0x00, 0x00, 0xd2, 0xfe, 0xff, 0xff,
  0x14, 0x00, 0x00, 0x00, 0xe8, 0x00, 0x00, 0x00, 0x03, 0x00, 0x00, 0x00,
  0x00, 0x00, 0x00, 0x02, 0x10, 0x01, 0x00, 0x00, 0xc4, 0xfe, 0xff, 0xff,
  0x08, 0x00, 0x00, 0x00, 0x8c, 0x00, 0x00, 0x00, 0x10, 0x00, 0x00, 0x00,
  0x00, 0x00, 0x00, 0x00, 0x00, 0x00, 0x00, 0x00, 0x00, 0x00, 0x00, 0x00,
  0x00, 0x00, 0x00, 0x00, 0x00, 0x00, 0x00, 0x00, 0x00, 0x00, 0x00, 0x00,
  0x00, 0x00, 0x00, 0x00, 0x00, 0x00, 0x00, 0x00, 0x00, 0x00, 0x00, 0x00,
  0x00, 0x00, 0x00, 0x00, 0x00, 0x00, 0x00, 0x00, 0x00, 0x00, 0x00, 0x00,
  0x00, 0x00, 0x00, 0x00, 0x00, 0x00, 0x00, 0x00, 0x00, 0x00, 0x00, 0x00,
  0x00, 0x00, 0x00, 0x00, 0x00, 0x00, 0x00, 0x00, 0x00, 0x00, 0x00, 0x00,
  0x00, 0x00, 0x00, 0x00, 0x00, 0x00, 0x00, 0x00, 0x00, 0x00, 0x00, 0x00,
  0x00, 0x00, 0x00, 0x00, 0x00, 0x00, 0x00, 0x00, 0x00, 0x00, 0x00, 0x00,
  0x00, 0x00, 0x00, 0x00, 0x00, 0x00, 0x00, 0x00, 0x00, 0x00, 0x00, 0x00,
  0x00, 0x00, 0x00, 0x00, 0x00, 0x00, 0x00, 0x00, 0x00, 0x00, 0x00, 0x00,
  0x00, 0x00, 0x00, 0x00, 0x00, 0x00, 0x00, 0x00, 0x00, 0x00, 0x00, 0x00,
  0x10, 0x00, 0x00, 0x00, 0x19, 0x4b, 0xbf, 0x38, 0xc2, 0xd1, 0xfb, 0x38,
  0x27, 0xcf, 0xcd, 0x38, 0xd5, 0x07, 0x8b, 0x38, 0x06, 0x95, 0x83, 0x38,
  0x40, 0x9b, 0x85, 0x38, 0x23, 0xd9, 0x16, 0x39, 0x3c, 0x04, 0xce, 0x38,
  0xeb, 0x11, 0x51, 0x38, 0x72, 0xa3, 0x92, 0x38, 0x30, 0x43, 0x00, 0x39,
  0xfc, 0xb9, 0xa9, 0x38, 0x8e, 0xba, 0x87, 0x38, 0x48, 0x2c, 0xc1, 0x38,
  0xb7, 0x15, 0xb9, 0x38, 0x0d, 0x14, 0xce, 0x38, 0x2f, 0x00, 0x00, 0x00,
  0x50, 0x4e, 0x65, 0x74, 0x2f, 0x50, 0x4e, 0x65, 0x74, 0x5f, 0x43, 0x4f,
  0x4e, 0x56, 0x32, 0x2f, 0x42, 0x69, 0x61, 0x73, 0x41, 0x64, 0x64, 0x2f,
  0x52, 0x65, 0x61, 0x64, 0x56, 0x61, 0x72, 0x69, 0x61, 0x62, 0x6c, 0x65,
  0x4f, 0x70, 0x2f, 0x72, 0x65, 0x73, 0x6f, 0x75, 0x72, 0x63, 0x65, 0x00,
  0x01, 0x00, 0x00, 0x00, 0x10, 0x00, 0x00, 0x00, 0x00, 0x00, 0x0e, 0x00,
  0x18, 0x00, 0x14, 0x00, 0x13, 0x00, 0x0c, 0x00, 0x08, 0x00, 0x04, 0x00,
  0x0e, 0x00, 0x00, 0x00, 0x20, 0x00, 0x00, 0x00, 0xa8, 0x00, 0x00, 0x00,
  0x02, 0x00, 0x00, 0x00, 0x00, 0x00, 0x00, 0x02, 0xd0, 0x00, 0x00, 0x00,
  0x0c, 0x00, 0x0c, 0x00, 0x00, 0x00, 0x00, 0x00, 0x08, 0x00, 0x04, 0x00,
  0x0c, 0x00, 0x00, 0x00, 0x08, 0x00, 0x00, 0x00, 0x58, 0x00, 0x00, 0x00,
  0x0a, 0x00, 0x00, 0x00, 0x00, 0x00, 0x00, 0x00, 0x00, 0x00, 0x00, 0x00,
  0x00, 0x00, 0x00, 0x00, 0x00, 0x00, 0x00, 0x00, 0x00, 0x00, 0x00, 0x00,
  0x00, 0x00, 0x00, 0x00, 0x00, 0x00, 0x00, 0x00, 0x00, 0x00, 0x00, 0x00,
  0x00, 0x00, 0x00, 0x00, 0x00, 0x00, 0x00, 0x00, 0x00, 0x00, 0x00, 0x00,
  0x00, 0x00, 0x00, 0x00, 0x00, 0x00, 0x00, 0x00, 0x00, 0x00, 0x00, 0x00,
  0x00, 0x00, 0x00, 0x00, 0x00, 0x00, 0x00, 0x00, 0x00, 0x00, 0x00, 0x00,
  0x00, 0x00, 0x00, 0x00, 0x00, 0x00, 0x00, 0x00, 0x00, 0x00, 0x00, 0x00,
  0x0a, 0x00, 0x00, 0x00, 0xc1, 0x5b, 0x92, 0x37, 0xe8, 0x74, 0x85, 0x37,
  0xae, 0x11, 0x7c, 0x37, 0x5b, 0xf6, 0x87, 0x37, 0x4f, 0x5b, 0xb1, 0x37,
  0x70, 0xed, 0x92, 0x37, 0x11, 0x96, 0x9d, 0x37, 0x47, 0xc9, 0xc8, 0x37,
  0xca, 0xf3, 0x9d, 0x37, 0x19, 0x01, 0x9e, 0x37, 0x2f, 0x00, 0x00, 0x00,
  0x50, 0x4e, 0x65, 0x74, 0x2f, 0x50, 0x4e, 0x65, 0x74, 0x5f, 0x43, 0x4f,
  0x4e, 0x56, 0x31, 0x2f, 0x42, 0x69, 0x61, 0x73, 0x41, 0x64, 0x64, 0x2f,
  0x52, 0x65, 0x61, 0x64, 0x56, 0x61, 0x72, 0x69, 0x61, 0x62, 0x6c, 0x65,
  0x4f, 0x70, 0x2f, 0x72, 0x65, 0x73, 0x6f, 0x75, 0x72, 0x63, 0x65, 0x00,
  0x01, 0x00, 0x00, 0x00, 0x0a, 0x00, 0x00, 0x00, 0x14, 0x00, 0x1c, 0x00,
  0x18, 0x00, 0x17, 0x00, 0x10, 0x00, 0x0c, 0x00, 0x08, 0x00, 0x00, 0x00,
  0x00, 0x00, 0x04, 0x00, 0x14, 0x00, 0x00, 0x00, 0x18, 0x00, 0x00, 0x00,
  0x34, 0x00, 0x00, 0x00, 0x6c, 0x00, 0x00, 0x00, 0x01, 0x00, 0x00, 0x00,
  0x00, 0x00, 0x00, 0x09, 0x74, 0x00, 0x00, 0x00, 0x04, 0x00, 0x00, 0x00,
  0xff, 0xff, 0xff, 0xff, 0x0c, 0x00, 0x00, 0x00, 0x0c, 0x00, 0x00, 0x00,
  0x03, 0x00, 0x00, 0x00, 0x0c, 0x00, 0x14, 0x00, 0x10, 0x00, 0x0c, 0x00,
  0x08, 0x00, 0x04, 0x00, 0x0c, 0x00, 0x00, 0x00, 0x10, 0x00, 0x00, 0x00,
  0x1c, 0x00, 0x00, 0x00, 0x20, 0x00, 0x00, 0x00, 0x24, 0x00, 0x00, 0x00,
  0x01, 0x00, 0x00, 0x00, 0x80, 0xff, 0xff, 0xff, 0xff, 0xff, 0xff, 0xff,
  0x00, 0x00, 0x00, 0x00, 0x01, 0x00, 0x00, 0x00, 0x81, 0x80, 0x80, 0x3b,
  0x01, 0x00, 0x00, 0x00, 0x00, 0x00, 0x80, 0x3f, 0x01, 0x00, 0x00, 0x00,
  0x00, 0x00, 0x00, 0x00, 0x0f, 0x00, 0x00, 0x00, 0x50, 0x4e, 0x65, 0x74,
  0x5f, 0x49, 0x6e, 0x70, 0x75, 0x74, 0x5f, 0x69, 0x6e, 0x74, 0x38, 0x00,
  0x04, 0x00, 0x00, 0x00, 0x01, 0x00, 0x00, 0x00, 0x0c, 0x00, 0x00, 0x00,
  0x0c, 0x00, 0x00, 0x00, 0x03, 0x00, 0x00, 0x00, 0x05, 0x00, 0x00, 0x00,
  0x68, 0x00, 0x00, 0x00, 0x48, 0x00, 0x00, 0x00, 0x34, 0x00, 0x00, 0x00,
  0x24, 0x00, 0x00, 0x00, 0x04, 0x00, 0x00, 0x00, 0xb8, 0xff, 0xff, 0xff,
  0x06, 0x00, 0x00, 0x00, 0x02, 0x00, 0x00, 0x00, 0x00, 0x00, 0x00, 0x06,
  0x0c, 0x00, 0x0c, 0x00, 0x0b, 0x00, 0x00, 0x00, 0x00, 0x00, 0x04, 0x00,
  0x0c, 0x00, 0x00, 0x00, 0x72, 0x00, 0x00, 0x00, 0x00, 0x00, 0x00, 0x72,
  0xe0, 0xff, 0xff, 0xff, 0x19, 0x00, 0x00, 0x00, 0x02, 0x00, 0x00, 0x00,
  0x00, 0x00, 0x00, 0x19, 0xf0, 0xff, 0xff, 0xff, 0x11, 0x00, 0x00, 0x00,
  0x02, 0x00, 0x00, 0x00, 0x00, 0x00, 0x00, 0x11, 0x0c, 0x00, 0x10, 0x00,
  0x0f, 0x00, 0x00, 0x00, 0x08, 0x00, 0x04, 0x00, 0x0c, 0x00, 0x00, 0x00,
  0x03, 0x00, 0x00, 0x00, 0x03, 0x00, 0x00, 0x00, 0x00, 0x00, 0x00, 0x03
 
};

#endif //PNET_H