#ifndef PNET_H
#define PNET_H


unsigned int pnet_len = 15824;
unsigned char pnet[] = {
 0x28, 0x00, 0x00, 0x00, 0x54, 0x46, 0x4c, 0x33, 0x00, 0x00, 0x00, 0x00,
  0x00, 0x00, 0x00, 0x00, 0x00, 0x00, 0x00, 0x00, 0x00, 0x00, 0x12, 0x00,
  0x1c, 0x00, 0x04, 0x00, 0x08, 0x00, 0x0c, 0x00, 0x10, 0x00, 0x14, 0x00,
  0x00, 0x00, 0x18, 0x00, 0x12, 0x00, 0x00, 0x00, 0x03, 0x00, 0x00, 0x00,
  0x44, 0x3d, 0x00, 0x00, 0x98, 0x21, 0x00, 0x00, 0x80, 0x21, 0x00, 0x00,
  0x3c, 0x00, 0x00, 0x00, 0x04, 0x00, 0x00, 0x00, 0x01, 0x00, 0x00, 0x00,
  0x0c, 0x00, 0x00, 0x00, 0x08, 0x00, 0x0c, 0x00, 0x04, 0x00, 0x08, 0x00,
  0x08, 0x00, 0x00, 0x00, 0x08, 0x00, 0x00, 0x00, 0x19, 0x00, 0x00, 0x00,
  0x13, 0x00, 0x00, 0x00, 0x6d, 0x69, 0x6e, 0x5f, 0x72, 0x75, 0x6e, 0x74,
  0x69, 0x6d, 0x65, 0x5f, 0x76, 0x65, 0x72, 0x73, 0x69, 0x6f, 0x6e, 0x00,
  0x1a, 0x00, 0x00, 0x00, 0x30, 0x21, 0x00, 0x00, 0x1c, 0x21, 0x00, 0x00,
  0xf0, 0x1f, 0x00, 0x00, 0x3c, 0x1a, 0x00, 0x00, 0x28, 0x08, 0x00, 0x00,
  0x94, 0x07, 0x00, 0x00, 0x40, 0x07, 0x00, 0x00, 0xfc, 0x06, 0x00, 0x00,
  0xf8, 0x02, 0x00, 0x00, 0xa4, 0x02, 0x00, 0x00, 0x00, 0x02, 0x00, 0x00,
  0x6c, 0x01, 0x00, 0x00, 0x38, 0x01, 0x00, 0x00, 0x14, 0x01, 0x00, 0x00,
  0xf0, 0x00, 0x00, 0x00, 0xe4, 0x00, 0x00, 0x00, 0xd0, 0x00, 0x00, 0x00,
  0xbc, 0x00, 0x00, 0x00, 0xa8, 0x00, 0x00, 0x00, 0x94, 0x00, 0x00, 0x00,
  0x80, 0x00, 0x00, 0x00, 0x6c, 0x00, 0x00, 0x00, 0x58, 0x00, 0x00, 0x00,
  0x44, 0x00, 0x00, 0x00, 0x30, 0x00, 0x00, 0x00, 0x04, 0x00, 0x00, 0x00,
  0x96, 0xde, 0xff, 0xff, 0x04, 0x00, 0x00, 0x00, 0x10, 0x00, 0x00, 0x00,
  0x31, 0x2e, 0x38, 0x2e, 0x30, 0x00, 0x00, 0x00, 0x00, 0x00, 0x00, 0x00,
  0x00, 0x00, 0x00, 0x00, 0x00, 0x00, 0x00, 0x00, 0x00, 0x00, 0x00, 0x00,
  0x00, 0x00, 0x00, 0x00, 0x64, 0xdf, 0xff, 0xff, 0x00, 0x00, 0x00, 0x00,
  0x00, 0x00, 0x00, 0x00, 0x00, 0x00, 0x00, 0x00, 0x74, 0xdf, 0xff, 0xff,
  0x00, 0x00, 0x00, 0x00, 0x00, 0x00, 0x00, 0x00, 0x00, 0x00, 0x00, 0x00,
  0x84, 0xdf, 0xff, 0xff, 0x00, 0x00, 0x00, 0x00, 0x00, 0x00, 0x00, 0x00,
  0x00, 0x00, 0x00, 0x00, 0x94, 0xdf, 0xff, 0xff, 0x00, 0x00, 0x00, 0x00,
  0x00, 0x00, 0x00, 0x00, 0x00, 0x00, 0x00, 0x00, 0xa4, 0xdf, 0xff, 0xff,
  0x00, 0x00, 0x00, 0x00, 0x00, 0x00, 0x00, 0x00, 0x00, 0x00, 0x00, 0x00,
  0xb4, 0xdf, 0xff, 0xff, 0x00, 0x00, 0x00, 0x00, 0x00, 0x00, 0x00, 0x00,
  0x00, 0x00, 0x00, 0x00, 0xc4, 0xdf, 0xff, 0xff, 0x00, 0x00, 0x00, 0x00,
  0x00, 0x00, 0x00, 0x00, 0x00, 0x00, 0x00, 0x00, 0xd4, 0xdf, 0xff, 0xff,
  0x00, 0x00, 0x00, 0x00, 0x00, 0x00, 0x00, 0x00, 0x00, 0x00, 0x00, 0x00,
  0xe4, 0xdf, 0xff, 0xff, 0x00, 0x00, 0x00, 0x00, 0x00, 0x00, 0x00, 0x00,
  0x00, 0x00, 0x00, 0x00, 0xf4, 0xdf, 0xff, 0xff, 0x00, 0x00, 0x00, 0x00,
  0x56, 0xdf, 0xff, 0xff, 0x04, 0x00, 0x00, 0x00, 0x08, 0x00, 0x00, 0x00,
  0x42, 0x00, 0x00, 0x00, 0xaf, 0xff, 0xff, 0xff, 0x00, 0x00, 0x00, 0x00,
  0x00, 0x00, 0x00, 0x00, 0x00, 0x00, 0x00, 0x00, 0x76, 0xdf, 0xff, 0xff,
  0x04, 0x00, 0x00, 0x00, 0x10, 0x00, 0x00, 0x00, 0x88, 0x00, 0x00, 0x00,
  0xb6, 0xff, 0xff, 0xff, 0xff, 0xff, 0xff, 0xff, 0x1d, 0x00, 0x00, 0x00,
  0x00, 0x00, 0x00, 0x00, 0x96, 0xdf, 0xff, 0xff, 0x04, 0x00, 0x00, 0x00,
  0x20, 0x00, 0x00, 0x00, 0x63, 0xfc, 0xe9, 0xd6, 0xf1, 0x7f, 0xff, 0xf9,
  0x70, 0x4e, 0xe6, 0xef, 0xfb, 0xf6, 0x02, 0x65, 0xfd, 0xec, 0xf9, 0xd6,
  0x77, 0xf9, 0xf4, 0x1e, 0xf3, 0xec, 0xfc, 0xf8, 0xf0, 0xf1, 0xfc, 0xfa,
  0x00, 0x00, 0x00, 0x00, 0xc6, 0xdf, 0xff, 0xff, 0x04, 0x00, 0x00, 0x00,
  0x80, 0x00, 0x00, 0x00, 0x12, 0xf3, 0xff, 0xff, 0x76, 0x08, 0x00, 0x00,
  0x77, 0xfe, 0xff, 0xff, 0x8b, 0x06, 0x00, 0x00, 0x11, 0x00, 0x00, 0x00,
  0x64, 0xfa, 0xff, 0xff, 0x1b, 0xf4, 0xff, 0xff, 0x31, 0xf9, 0xff, 0xff,
  0x49, 0xfb, 0xff, 0xff, 0xe3, 0xf4, 0xff, 0xff, 0xfc, 0xff, 0xff, 0xff,
  0xfd, 0x06, 0x00, 0x00, 0xed, 0xfd, 0xff, 0xff, 0x33, 0x08, 0x00, 0x00,
  0xd3, 0xf7, 0xff, 0xff, 0x1a, 0xf3, 0xff, 0xff, 0x2d, 0xfa, 0xff, 0xff,
  0x62, 0x01, 0x00, 0x00, 0x4e, 0x07, 0x00, 0x00, 0x45, 0x01, 0x00, 0x00,
  0x63, 0xf8, 0xff, 0xff, 0xec, 0xfd, 0xff, 0xff, 0xea, 0x00, 0x00, 0x00,
  0xfd, 0xfe, 0xff, 0xff, 0xea, 0xf4, 0xff, 0xff, 0xf2, 0x02, 0x00, 0x00,
  0x21, 0xf8, 0xff, 0xff, 0x95, 0x03, 0x00, 0x00, 0x45, 0x02, 0x00, 0x00,
  0xe7, 0x07, 0x00, 0x00, 0xaf, 0xfd, 0xff, 0xff, 0x28, 0x07, 0x00, 0x00,
  0x00, 0x00, 0x00, 0x00, 0x56, 0xe0, 0xff, 0xff, 0x04, 0x00, 0x00, 0x00,
  0x90, 0x00, 0x00, 0x00, 0xe5, 0x7f, 0x0d, 0x14, 0xfc, 0xfe, 0xf0, 0xf3,
  0x13, 0xfa, 0x05, 0x01, 0x01, 0x0e, 0xfc, 0xc8, 0xf7, 0x13, 0xce, 0x28,
  0x13, 0xee, 0xf0, 0x31, 0xdc, 0x2e, 0xf8, 0x25, 0x15, 0xfe, 0x0f, 0xf6,
  0xc3, 0x03, 0xe3, 0xf7, 0x06, 0x17, 0x03, 0x23, 0x07, 0x3c, 0x37, 0xf7,
  0x12, 0x0b, 0xff, 0x0c, 0xdc, 0xcb, 0xcb, 0x37, 0x59, 0xf9, 0x0f, 0xeb,
  0xd5, 0x23, 0xee, 0xf0, 0xf8, 0xfe, 0xe4, 0x09, 0xd4, 0xbe, 0xde, 0xeb,
  0x19, 0x09, 0x0a, 0x49, 0x25, 0xf0, 0x0a, 0x16, 0xf9, 0xff, 0xf3, 0xfe,
  0x06, 0xb9, 0xcf, 0x06, 0xf4, 0xee, 0xf5, 0x05, 0xdb, 0xed, 0x19, 0xe5,
  0x35, 0xf3, 0xf1, 0x0c, 0x00, 0xe6, 0x1c, 0x01, 0x39, 0x13, 0x19, 0x2d,
  0x37, 0x2e, 0xf3, 0x1c, 0xe0, 0xe7, 0xec, 0xeb, 0xed, 0xc5, 0xfe, 0xf6,
  0x0a, 0x08, 0xf7, 0xe6, 0xff, 0xf8, 0x0f, 0xdf, 0xed, 0xf3, 0xec, 0xe9,
  0xdf, 0xa3, 0x2e, 0xf1, 0xc9, 0x04, 0x20, 0x39, 0x1f, 0x1f, 0xf8, 0xee,
  0x1c, 0xf0, 0xf6, 0xf3, 0x00, 0x00, 0x00, 0x00, 0xf6, 0xe0, 0xff, 0xff,
  0x04, 0x00, 0x00, 0x00, 0x40, 0x00, 0x00, 0x00, 0x68, 0xfe, 0xff, 0xff,
  0x1d, 0xfd, 0xff, 0xff, 0x23, 0x00, 0x00, 0x00, 0x56, 0x00, 0x00, 0x00,
  0x08, 0x00, 0x00, 0x00, 0xb8, 0x01, 0x00, 0x00, 0x5e, 0x01, 0x00, 0x00,
  0x16, 0x02, 0x00, 0x00, 0xff, 0x02, 0x00, 0x00, 0xf6, 0x04, 0x00, 0x00,
  0x14, 0x04, 0x00, 0x00, 0xbf, 0x01, 0x00, 0x00, 0xb9, 0x03, 0x00, 0x00,
  0x28, 0x02, 0x00, 0x00, 0x11, 0x03, 0x00, 0x00, 0xc2, 0xf9, 0xff, 0xff,
  0x00, 0x00, 0x00, 0x00, 0x46, 0xe1, 0xff, 0xff, 0x04, 0x00, 0x00, 0x00,
  0xe8, 0x03, 0x00, 0x00, 0x00, 0x16, 0x0c, 0x14, 0x00, 0x04, 0x04, 0x06,
  0xf7, 0x00, 0x00, 0x06, 0x2b, 0x21, 0x0f, 0x01, 0xec, 0x01, 0x00, 0x00,
  0x10, 0x02, 0x02, 0x00, 0x01, 0xef, 0x00, 0x01, 0x01, 0x00, 0x11, 0x03,
  0x17, 0x00, 0x02, 0x00, 0xde, 0x00, 0x01, 0xfb, 0x1a, 0x01, 0x13, 0x07,
  0x0e, 0x00, 0xda, 0xfd, 0x12, 0x00, 0x17, 0x01, 0x04, 0x07, 0x04, 0x00,
  0x00, 0x00, 0x14, 0x00, 0x09, 0xf2, 0x02, 0x01, 0x15, 0x00, 0x00, 0x07,
  0x0a, 0x00, 0x06, 0x01, 0x01, 0xff, 0x3e, 0xe8, 0x00, 0x09, 0x0d, 0xf3,
  0x19, 0x10, 0x1d, 0x09, 0x2f, 0xf3, 0x04, 0x00, 0x1a, 0x15, 0x0a, 0x18,
  0x1a, 0xf9, 0x43, 0x03, 0xff, 0x00, 0x1b, 0x1d, 0xe5, 0x25, 0x15, 0x1d,
  0x00, 0xea, 0x04, 0xff, 0x00, 0xf2, 0x00, 0x36, 0x16, 0x11, 0x01, 0x02,
  0x03, 0x02, 0x00, 0x00, 0x11, 0xf2, 0x06, 0x00, 0xef, 0x00, 0x00, 0x01,
  0xf1, 0x00, 0x1d, 0x01, 0x03, 0xf6, 0x01, 0x00, 0x00, 0xff, 0x01, 0x00,
  0x14, 0x01, 0x03, 0x0a, 0x03, 0x00, 0x00, 0x01, 0x1c, 0xf4, 0x16, 0xf7,
  0x04, 0x0b, 0x05, 0xf9, 0x00, 0x01, 0x19, 0x00, 0x11, 0x04, 0xfd, 0x04,
  0x1f, 0x00, 0x00, 0x0e, 0x2f, 0x00, 0x0d, 0x04, 0x03, 0x07, 0x0b, 0x00,
  0xf8, 0x0a, 0x0c, 0x00, 0x20, 0x11, 0x1c, 0x02, 0x6e, 0x04, 0x08, 0xfa,
  0x63, 0x35, 0x09, 0x0f, 0x26, 0x0d, 0x1f, 0x03, 0x0f, 0x00, 0x16, 0x10,
  0x00, 0xf0, 0x0c, 0x00, 0x04, 0x01, 0x08, 0x06, 0x14, 0x07, 0x00, 0x00,
  0x01, 0x05, 0x05, 0x01, 0x07, 0x03, 0x0b, 0x0b, 0x00, 0x04, 0x02, 0x02,
  0xf0, 0x00, 0x00, 0xf3, 0x02, 0x00, 0x00, 0x03, 0x00, 0x00, 0x02, 0x00,
  0x00, 0x00, 0x04, 0x00, 0x14, 0x18, 0x08, 0x17, 0x00, 0x00, 0x00, 0xfa,
  0x02, 0x00, 0x11, 0x1b, 0x0b, 0x0e, 0xf2, 0xfb, 0x00, 0x00, 0xfe, 0x02,
  0xf1, 0x15, 0x07, 0x00, 0x02, 0xf1, 0x01, 0xfa, 0x17, 0xf2, 0x03, 0x09,
  0x01, 0xe9, 0xed, 0x00, 0x01, 0x00, 0x0f, 0x00, 0xfd, 0x00, 0x07, 0xff,
  0x1f, 0x00, 0x00, 0x00, 0x0d, 0x00, 0x01, 0x00, 0x02, 0x00, 0x03, 0x02,
  0x01, 0xfd, 0x09, 0xf0, 0xf4, 0x00, 0x03, 0x0a, 0x03, 0xe6, 0x09, 0xfd,
  0x0b, 0x07, 0x00, 0x00, 0x0e, 0x02, 0xea, 0x01, 0x07, 0x07, 0x19, 0x06,
  0xd1, 0x01, 0x02, 0x03, 0x02, 0x00, 0xfb, 0x00, 0x00, 0x00, 0x00, 0x02,
  0xff, 0x00, 0x02, 0xe2, 0x00, 0x00, 0xf1, 0xfc, 0x0f, 0x0b, 0x03, 0x16,
  0x00, 0x00, 0x00, 0x00, 0x01, 0x04, 0x0b, 0x0c, 0x06, 0x08, 0x00, 0x00,
  0xd9, 0x00, 0x05, 0x0a, 0x03, 0x1d, 0x01, 0x00, 0x03, 0x00, 0x00, 0x00,
  0x1e, 0x00, 0x04, 0x04, 0xff, 0x00, 0x01, 0x00, 0x03, 0x00, 0x18, 0x01,
  0x01, 0xf1, 0x02, 0x00, 0x0b, 0x01, 0x00, 0x00, 0x24, 0x01, 0x02, 0x00,
  0x09, 0x00, 0xfc, 0xfc, 0xf7, 0x00, 0x0c, 0x01, 0x0b, 0x01, 0x00, 0x0d,
  0x13, 0x01, 0x00, 0x1b, 0x14, 0xee, 0x0d, 0xec, 0x01, 0x0e, 0x0f, 0x01,
  0xd2, 0x12, 0x19, 0x01, 0x00, 0x0a, 0x01, 0xfa, 0x01, 0x00, 0x00, 0x10,
  0x0f, 0x2e, 0x00, 0x0a, 0x00, 0x00, 0x01, 0x00, 0x00, 0x10, 0x21, 0x0a,
  0x03, 0x00, 0x03, 0x03, 0x01, 0x03, 0x00, 0xfd, 0x06, 0x16, 0x14, 0x01,
  0x06, 0x02, 0xff, 0x04, 0x00, 0x00, 0x07, 0x0b, 0x18, 0x0a, 0x0c, 0x02,
  0x00, 0x00, 0x07, 0x01, 0x1e, 0x03, 0x2f, 0x0b, 0x0a, 0x00, 0x01, 0x00,
  0x04, 0x04, 0x0f, 0xf9, 0x1d, 0x00, 0x0d, 0x00, 0x06, 0x08, 0x03, 0x0b,
  0x03, 0x00, 0x10, 0x02, 0x08, 0xee, 0x0c, 0x18, 0x11, 0x06, 0x00, 0x00,
  0x08, 0x00, 0xfd, 0x0e, 0x0d, 0x01, 0x00, 0x23, 0x19, 0x02, 0x13, 0x00,
  0x01, 0x12, 0x14, 0xf4, 0x01, 0x23, 0x2d, 0x01, 0x00, 0x18, 0x08, 0x00,
  0xfb, 0x01, 0x00, 0x14, 0x22, 0x0d, 0xfe, 0x1a, 0x08, 0x00, 0x01, 0xfc,
  0xeb, 0x09, 0x11, 0x12, 0x04, 0xf4, 0x03, 0x02, 0x02, 0x0d, 0x00, 0x00,
  0x10, 0x13, 0x07, 0x01, 0x06, 0x02, 0x02, 0x16, 0xf6, 0x00, 0x10, 0x0a,
  0x1e, 0x08, 0x20, 0x01, 0xf7, 0xfe, 0x04, 0xfe, 0x14, 0x01, 0x13, 0x0a,
  0x05, 0x01, 0x00, 0x00, 0x01, 0x03, 0x12, 0x02, 0x39, 0xfc, 0x08, 0x00,
  0x03, 0x1d, 0x10, 0x05, 0x00, 0x00, 0x16, 0x00, 0x07, 0x00, 0x13, 0x08,
  0x07, 0x0b, 0xfd, 0xe0, 0x00, 0x16, 0x0e, 0x0b, 0xef, 0x02, 0xe3, 0x04,
  0x02, 0x0b, 0xe5, 0x23, 0x11, 0x31, 0x01, 0x01, 0x00, 0x04, 0x01, 0x00,
  0x00, 0xfb, 0x06, 0x05, 0x00, 0x01, 0x01, 0x00, 0x1a, 0xf8, 0xdf, 0x00,
  0x07, 0x07, 0x00, 0xf9, 0xef, 0x00, 0x1b, 0x11, 0x05, 0x1b, 0x10, 0x01,
  0x06, 0x17, 0xea, 0x00, 0x12, 0x0a, 0xee, 0x16, 0x0e, 0x00, 0x01, 0x0f,
  0x01, 0xfe, 0x14, 0x1a, 0x12, 0x16, 0x04, 0x01, 0x0f, 0x07, 0x00, 0x00,
  0x1a, 0xff, 0x12, 0x1e, 0x0c, 0xf8, 0x16, 0x02, 0xe9, 0xf6, 0x27, 0x01,
  0x09, 0x01, 0x09, 0x05, 0x5f, 0x03, 0xea, 0x05, 0x01, 0x02, 0x04, 0x01,
  0x14, 0x10, 0x35, 0x03, 0x00, 0xf5, 0x01, 0xf2, 0x00, 0x12, 0x0e, 0x16,
  0x03, 0xf7, 0x00, 0x01, 0xf9, 0x06, 0x00, 0x0c, 0x2a, 0x0a, 0x01, 0x06,
  0x00, 0xf7, 0x02, 0x05, 0x00, 0x01, 0x03, 0x0c, 0xea, 0x00, 0x00, 0xf3,
  0x12, 0x01, 0x00, 0x00, 0x05, 0x04, 0x00, 0x00, 0x00, 0x00, 0x28, 0x0b,
  0x03, 0x06, 0x0c, 0x02, 0x08, 0x08, 0x00, 0x00, 0x23, 0x0c, 0x07, 0x12,
  0x1f, 0x00, 0x04, 0x0f, 0x00, 0x00, 0x1c, 0x17, 0x18, 0x11, 0x03, 0x00,
  0x15, 0x03, 0x00, 0x00, 0x1a, 0x01, 0x25, 0x02, 0x27, 0x00, 0x37, 0x00,
  0x00, 0x00, 0x1b, 0x03, 0x10, 0x02, 0x20, 0x06, 0x1b, 0x15, 0x00, 0x04,
  0xfb, 0x05, 0x06, 0xef, 0x11, 0x07, 0x12, 0x05, 0x00, 0x06, 0x01, 0x06,
  0x01, 0x04, 0x00, 0x0f, 0xec, 0x03, 0x02, 0xf3, 0x0e, 0x00, 0x06, 0x03,
  0xfb, 0x0a, 0x00, 0x01, 0x02, 0x02, 0x08, 0xf5, 0x22, 0x17, 0x03, 0x00,
  0x00, 0x01, 0x00, 0x0a, 0x00, 0x02, 0x1d, 0x13, 0x02, 0xf7, 0x00, 0xff,
  0x00, 0x0d, 0x00, 0x09, 0x14, 0x21, 0x18, 0x19, 0x0c, 0x0a, 0x00, 0x00,
  0xf9, 0x08, 0x3e, 0x0b, 0x07, 0x1b, 0x43, 0xff, 0x00, 0x00, 0x00, 0x0c,
  0x04, 0x00, 0x0d, 0x00, 0x31, 0x02, 0x00, 0x01, 0x11, 0x01, 0xfd, 0xfd,
  0x0d, 0xf9, 0x36, 0x02, 0xe1, 0x00, 0x1f, 0x01, 0xff, 0xf9, 0x15, 0x09,
  0x7f, 0x07, 0x06, 0x3a, 0x00, 0x19, 0x05, 0x00, 0x19, 0x38, 0x39, 0x07,
  0x07, 0x08, 0x00, 0x14, 0x02, 0x05, 0x00, 0x0b, 0x00, 0xf5, 0x02, 0x02,
  0x08, 0x01, 0xfe, 0x02, 0x00, 0x22, 0x00, 0x03, 0x01, 0x02, 0x0b, 0x01,
  0x2f, 0x2f, 0x02, 0x00, 0xee, 0x03, 0x00, 0x13, 0xf4, 0x17, 0x27, 0x3a,
  0x0e, 0x00, 0x00, 0x07, 0xe7, 0x12, 0x01, 0x02, 0x18, 0x20, 0x0c, 0x0d,
  0x05, 0x02, 0x00, 0x00, 0x00, 0x11, 0x2f, 0x1a, 0x06, 0x09, 0x0e, 0x07,
  0xfe, 0xf5, 0x00, 0x18, 0x05, 0x01, 0x08, 0x00, 0x13, 0x1b, 0x00, 0xf5,
  0x3a, 0x00, 0x04, 0x00, 0x25, 0x00, 0x0a, 0x1d, 0x00, 0x01, 0x2b, 0xda,
  0x04, 0x00, 0x0e, 0x0d, 0x30, 0x09, 0x29, 0x1b, 0x00, 0x1f, 0x03, 0x00,
  0x11, 0x0a, 0x59, 0x05, 0x1f, 0x3b, 0xf8, 0x15, 0x00, 0x00, 0x00, 0x00,
  0x00, 0x00, 0x00, 0x00, 0x00, 0x00, 0x00, 0x00, 0x46, 0xe5, 0xff, 0xff,
  0x04, 0x00, 0x00, 0x00, 0x28, 0x00, 0x00, 0x00, 0xf5, 0x94, 0xff, 0xff,
  0xde, 0x02, 0x00, 0x00, 0x25, 0x1b, 0x00, 0x00, 0xdd, 0x12, 0x00, 0x00,
  0x77, 0x01, 0x00, 0x00, 0x81, 0x01, 0x00, 0x00, 0x17, 0x0a, 0x00, 0x00,
  0x60, 0x04, 0x00, 0x00, 0xa1, 0x00, 0x00, 0x00, 0xff, 0xff, 0xff, 0xff,
  0x00, 0x00, 0x00, 0x00, 0x00, 0x00, 0x00, 0x00, 0x00, 0x00, 0x00, 0x00,
  0x86, 0xe5, 0xff, 0xff, 0x04, 0x00, 0x00, 0x00, 0x40, 0x00, 0x00, 0x00,
  0x15, 0x7f, 0xf1, 0x30, 0x1a, 0xe3, 0xc4, 0x66, 0xea, 0xd1, 0xeb, 0x8f,
  0x87, 0x34, 0xeb, 0xe0, 0xcc, 0x37, 0x36, 0xe9, 0x37, 0x49, 0xd4, 0xea,
  0xc0, 0xcb, 0xe3, 0x72, 0x83, 0x38, 0x70, 0x68, 0x17, 0x9a, 0x41, 0xc9,
  0x8c, 0x1f, 0xb5, 0x99, 0x2d, 0xca, 0x31, 0x3a, 0x46, 0x89, 0xea, 0xdb,
  0xf1, 0xcc, 0x8c, 0x42, 0x46, 0x8a, 0x2e, 0x19, 0x6c, 0x4f, 0x76, 0xb7,
  0x17, 0x89, 0x81, 0x9d, 0x00, 0x00, 0x00, 0x00, 0xd6, 0xe5, 0xff, 0xff,
  0x04, 0x00, 0x00, 0x00, 0x80, 0x00, 0x00, 0x00, 0x11, 0xff, 0xff, 0x03,
  0x02, 0x01, 0x81, 0x01, 0xff, 0xdf, 0x01, 0xff, 0xff, 0x04, 0x05, 0x07,
  0xf7, 0xfe, 0x01, 0xfa, 0x0c, 0x02, 0xfe, 0x00, 0xfd, 0x00, 0x03, 0x00,
  0xfe, 0x02, 0x01, 0x04, 0x16, 0xf9, 0xff, 0x00, 0x01, 0x01, 0x81, 0xff,
  0x00, 0xfe, 0x02, 0x02, 0x01, 0xff, 0xed, 0xf4, 0xfd, 0x00, 0xfe, 0x01,
  0xf9, 0x01, 0x01, 0x02, 0x00, 0x00, 0xff, 0xfe, 0x02, 0x00, 0x01, 0xff,
  0xff, 0x00, 0x01, 0xff, 0x00, 0x00, 0x81, 0xff, 0xff, 0xfc, 0x02, 0x00,
  0x01, 0xff, 0xfd, 0xfe, 0x01, 0xff, 0xff, 0x00, 0x09, 0xff, 0x01, 0x00,
  0x01, 0x00, 0x00, 0x00, 0x01, 0xff, 0xff, 0x00, 0x03, 0xfd, 0x02, 0x01,
  0x00, 0xfe, 0x7f, 0x01, 0xfe, 0x09, 0xfd, 0xff, 0x00, 0x01, 0xf1, 0xee,
  0x05, 0x00, 0x00, 0xff, 0x04, 0x01, 0xff, 0x04, 0x00, 0xff, 0x00, 0x01,
  0xff, 0x00, 0x02, 0x03, 0x00, 0x00, 0x00, 0x00, 0x66, 0xe6, 0xff, 0xff,
  0x04, 0x00, 0x00, 0x00, 0x00, 0x12, 0x00, 0x00, 0x3f, 0x13, 0x69, 0x52,
  0x51, 0xfe, 0xf3, 0x5c, 0x20, 0x01, 0x13, 0xf7, 0xa9, 0x4f, 0x52, 0x81,
  0x69, 0xe7, 0x24, 0xdf, 0x0d, 0x46, 0x62, 0x4d, 0x2c, 0xf7, 0xf3, 0x18,
  0x12, 0x2e, 0xda, 0x02, 0xfd, 0x2c, 0x1f, 0xcf, 0x6b, 0x2a, 0xfc, 0x27,
  0x4b, 0xbb, 0x1c, 0x0f, 0xf6, 0x02, 0x5b, 0x32, 0x31, 0xf5, 0xf4, 0x2c,
  0xe9, 0xde, 0xec, 0x58, 0xde, 0x0d, 0x59, 0x1e, 0x04, 0x3f, 0x46, 0xed,
  0xfd, 0x34, 0xea, 0xca, 0xe1, 0xd1, 0x19, 0xac, 0x8e, 0xee, 0xef, 0xf9,
  0x04, 0xed, 0xd9, 0xd8, 0x3f, 0x04, 0x32, 0xc0, 0xe2, 0x63, 0x0a, 0x07,
  0xf5, 0xcc, 0x1e, 0xef, 0x14, 0x15, 0x58, 0x62, 0xf1, 0x25, 0x5b, 0xbf,
  0x10, 0xb7, 0x24, 0xf9, 0xd0, 0x08, 0x0e, 0x70, 0xc9, 0x1d, 0x19, 0xd9,
  0x1b, 0xed, 0xe4, 0xf0, 0x21, 0x0f, 0x06, 0x1c, 0x30, 0x0e, 0xcd, 0xf2,
  0xeb, 0x48, 0x35, 0xdc, 0xd3, 0x1a, 0xf7, 0xb4, 0x07, 0x3d, 0xfb, 0x62,
  0xf9, 0xab, 0xf7, 0x1c, 0xca, 0x47, 0x2b, 0xb8, 0xbf, 0x1d, 0xad, 0x0d,
  0x1f, 0xf2, 0xcc, 0x0a, 0xc3, 0x07, 0xd6, 0xda, 0x2e, 0xc5, 0x39, 0x3e,
  0xfe, 0xdf, 0xf5, 0xd0, 0xe7, 0xb1, 0xda, 0x21, 0xf6, 0xec, 0x16, 0x1c,
  0xff, 0xe5, 0x27, 0xdb, 0xb3, 0x14, 0xff, 0xf0, 0xa5, 0xec, 0x07, 0x27,
  0xc5, 0x0c, 0xd8, 0xa1, 0x49, 0x25, 0xa9, 0x51, 0xe0, 0xed, 0xdf, 0xff,
  0x07, 0xc1, 0xb6, 0xfb, 0x3e, 0x22, 0xc9, 0x28, 0xb0, 0xf3, 0xe9, 0x6d,
  0xb8, 0x16, 0xbc, 0x0f, 0x0a, 0x3c, 0x08, 0x1d, 0x31, 0x0b, 0x33, 0xeb,
  0xf1, 0x15, 0xae, 0xf9, 0x1a, 0x01, 0xe7, 0x7f, 0x0f, 0xd6, 0x1f, 0xc8,
  0x0f, 0x12, 0x28, 0x31, 0xe2, 0xd5, 0xc7, 0xaf, 0xd7, 0x1b, 0x01, 0xee,
  0x1c, 0x0f, 0xf6, 0x3b, 0x1f, 0xdb, 0xfd, 0xe2, 0xd1, 0xd7, 0x1d, 0xc2,
  0xbf, 0xcb, 0xb8, 0x7e, 0x08, 0x38, 0x07, 0xa4, 0x01, 0x20, 0x0f, 0xe5,
  0x4d, 0xd8, 0xd8, 0xf9, 0x83, 0x72, 0x0b, 0xbe, 0x33, 0xc7, 0x0a, 0x99,
  0xfe, 0xea, 0x1a, 0xf6, 0x45, 0x10, 0x20, 0xd6, 0xea, 0x06, 0x2c, 0x06,
  0x56, 0x3e, 0xe1, 0xe9, 0xb0, 0x8e, 0x0a, 0x19, 0xd6, 0x06, 0xea, 0x98,
  0x41, 0x65, 0x05, 0x19, 0x2e, 0x5b, 0xa6, 0xfb, 0xd5, 0xe4, 0xcf, 0x06,
  0xca, 0x0a, 0xae, 0xf3, 0xee, 0x62, 0xef, 0xb3, 0xe9, 0x20, 0xfb, 0xec,
  0xc8, 0xf6, 0xc2, 0x28, 0xe5, 0xb2, 0x00, 0x4b, 0xfe, 0x1b, 0xec, 0x00,
  0x27, 0x0b, 0x0b, 0xe0, 0xf6, 0xf3, 0xf5, 0x08, 0xa1, 0x2c, 0x3b, 0xf4,
  0xeb, 0x2c, 0x17, 0x90, 0x0f, 0xa4, 0xe2, 0x13, 0x9c, 0xfe, 0xde, 0x2b,
  0x85, 0xf3, 0xde, 0xd5, 0x32, 0x2d, 0xee, 0xe8, 0xd5, 0x72, 0xf6, 0x03,
  0x35, 0xe7, 0x0f, 0x39, 0xe7, 0x7d, 0xfa, 0x3f, 0xde, 0x67, 0x3d, 0x81,
  0x58, 0xc5, 0xe7, 0xb1, 0xb3, 0xdb, 0x1e, 0x24, 0x00, 0x64, 0x0b, 0x05,
  0x32, 0x49, 0x2f, 0xa4, 0x34, 0xf8, 0x09, 0xee, 0x2f, 0xdb, 0x10, 0xfc,
  0xd1, 0xec, 0x16, 0xd1, 0x28, 0x2a, 0x00, 0x09, 0x20, 0xf5, 0xb1, 0x19,
  0x1d, 0x94, 0xdc, 0x3c, 0xd4, 0x48, 0x14, 0x07, 0xc7, 0x11, 0xec, 0xcd,
  0xe0, 0xc8, 0x13, 0x48, 0xd0, 0x1c, 0xc0, 0x23, 0xfa, 0x25, 0xc4, 0x20,
  0xf1, 0xc7, 0xec, 0x10, 0xd4, 0xee, 0x5f, 0x0e, 0x0f, 0x1b, 0xf5, 0xba,
  0x1b, 0xdf, 0x87, 0x4e, 0x24, 0xd6, 0xf1, 0x68, 0xd5, 0x83, 0x4f, 0x17,
  0xcb, 0x1a, 0xfc, 0xbc, 0xeb, 0x28, 0xbc, 0x1a, 0xcf, 0xf4, 0xfb, 0x24,
  0x07, 0x1b, 0xf9, 0x06, 0x03, 0xd3, 0xf1, 0x15, 0x71, 0x03, 0xcf, 0x81,
  0x1b, 0xfe, 0x19, 0x04, 0xe9, 0xf4, 0x14, 0xef, 0x0e, 0x22, 0x0e, 0x25,
  0x03, 0x01, 0x06, 0xf1, 0x1e, 0xf5, 0xfe, 0x31, 0xeb, 0xce, 0x06, 0x0c,
  0x16, 0x09, 0x29, 0xef, 0x31, 0x05, 0xd0, 0x47, 0x21, 0xfb, 0xfd, 0x0a,
  0xf0, 0x34, 0xcd, 0x02, 0x35, 0xeb, 0xdd, 0xb8, 0x11, 0xfd, 0x31, 0x5b,
  0x0e, 0x20, 0x05, 0x0a, 0x1a, 0x41, 0xfd, 0xf9, 0x1f, 0x28, 0xe9, 0xec,
  0x06, 0xed, 0xf4, 0x1e, 0xd4, 0xdf, 0x09, 0x50, 0x15, 0x8c, 0xd6, 0xb5,
  0x1f, 0x10, 0x0f, 0x00, 0x56, 0xf4, 0xce, 0xfb, 0x0b, 0x04, 0x00, 0x17,
  0xa2, 0xe4, 0xf0, 0x03, 0xfb, 0x2a, 0xfc, 0xf4, 0x6f, 0xa7, 0xbf, 0x09,
  0xfc, 0xd9, 0xdf, 0xf4, 0xc9, 0xfd, 0xfb, 0x10, 0xff, 0x14, 0xd0, 0xf6,
  0x3d, 0x98, 0xbd, 0x29, 0x05, 0x01, 0xec, 0x17, 0xd5, 0xe7, 0xe0, 0xb8,
  0x0a, 0x41, 0x2c, 0xd5, 0x09, 0x48, 0xbd, 0x25, 0x18, 0xd6, 0x14, 0xe8,
  0x1f, 0xe1, 0x02, 0x13, 0x16, 0x19, 0x30, 0xba, 0xb9, 0xdb, 0xbd, 0xd4,
  0x2d, 0xf7, 0x03, 0x65, 0xd5, 0x2f, 0x40, 0xda, 0x14, 0x32, 0x0d, 0xcd,
  0xce, 0x00, 0xe3, 0x0c, 0xea, 0xc7, 0xd5, 0x06, 0xfb, 0x0f, 0xf2, 0xf5,
  0x12, 0x60, 0xf7, 0xe6, 0xdd, 0x06, 0x01, 0x18, 0x1b, 0x13, 0x3b, 0xee,
  0x0b, 0x0e, 0x2e, 0xf3, 0xda, 0x81, 0x01, 0x2e, 0x03, 0x4c, 0x05, 0xbc,
  0x11, 0x0a, 0xfe, 0xc2, 0x01, 0x24, 0xf3, 0xfb, 0xe7, 0xbe, 0x14, 0x19,
  0xb1, 0xf3, 0xb4, 0x12, 0x11, 0x1a, 0x20, 0xf9, 0x0e, 0xd6, 0x20, 0x3d,
  0x03, 0xca, 0x38, 0x02, 0xc8, 0x40, 0xd6, 0xfb, 0x1a, 0xdd, 0x3a, 0xf7,
  0x16, 0xd1, 0xe0, 0xc4, 0x3c, 0x3e, 0x30, 0xda, 0xe3, 0x02, 0x35, 0xbf,
  0xe3, 0x10, 0xfc, 0xf6, 0x04, 0xd3, 0x11, 0x20, 0x03, 0x36, 0xdd, 0xdb,
  0x04, 0x02, 0x22, 0xfb, 0x34, 0x38, 0xe2, 0xd1, 0x28, 0x04, 0xa9, 0x0b,
  0xeb, 0xfc, 0xf3, 0x01, 0xd0, 0xe2, 0x24, 0x03, 0x2c, 0x16, 0x06, 0x33,
  0x04, 0x04, 0xd2, 0x0c, 0x7d, 0xcf, 0x52, 0xf0, 0xf6, 0x23, 0x3d, 0x32,
  0x52, 0xcc, 0x2c, 0xfd, 0xf5, 0x1a, 0x16, 0xf5, 0x16, 0x21, 0x0a, 0xc5,
  0xc2, 0x1f, 0xc3, 0xe6, 0x5d, 0xfd, 0x2d, 0xff, 0x1e, 0x4a, 0x0a, 0xc8,
  0x61, 0x42, 0xc3, 0xf9, 0xfe, 0x00, 0x5d, 0x2a, 0x37, 0x2d, 0x19, 0xc8,
  0x0d, 0x31, 0x11, 0xed, 0xda, 0x81, 0x06, 0x02, 0xf1, 0x42, 0x08, 0xec,
  0x09, 0xc5, 0xe5, 0xfd, 0xff, 0x09, 0x26, 0x03, 0x2c, 0x08, 0x00, 0x04,
  0x26, 0x0b, 0x2d, 0xbc, 0x37, 0x21, 0x0d, 0xe8, 0x17, 0x5c, 0x33, 0xee,
  0xff, 0xdf, 0x02, 0x21, 0xc6, 0x48, 0x40, 0xe0, 0xc1, 0xc6, 0xb7, 0x09,
  0xfb, 0xbd, 0x37, 0xf3, 0xf2, 0x38, 0x28, 0x2d, 0xda, 0x18, 0xbb, 0xd7,
  0x1a, 0xbf, 0xfc, 0xed, 0x17, 0xee, 0xe3, 0xc1, 0x19, 0xfe, 0x3d, 0xf3,
  0xd9, 0xa1, 0x2d, 0x81, 0x06, 0xfb, 0xfd, 0x0a, 0x06, 0x15, 0xdf, 0x00,
  0xe4, 0x64, 0xab, 0x04, 0x08, 0x11, 0x03, 0x63, 0xe9, 0x1c, 0xfd, 0xfd,
  0xea, 0xcc, 0x08, 0x01, 0xef, 0xf7, 0xdb, 0x0e, 0xe1, 0xc1, 0x04, 0x3f,
  0xd4, 0x23, 0xe7, 0xe9, 0xff, 0xee, 0x0b, 0x2b, 0xc7, 0xe6, 0x0d, 0xd5,
  0xff, 0x1b, 0xe6, 0x2d, 0xbb, 0x09, 0xff, 0x29, 0xf0, 0x17, 0x0b, 0xed,
  0x0a, 0x2c, 0xd0, 0x16, 0x08, 0xfd, 0x9b, 0x47, 0xe5, 0x16, 0x06, 0xfb,
  0xca, 0xc1, 0x26, 0xf0, 0x32, 0x0b, 0xfc, 0xb4, 0xf1, 0x17, 0x22, 0xa0,
  0xf3, 0x02, 0x15, 0xec, 0x1d, 0x12, 0xe1, 0xbb, 0xd5, 0xda, 0xf9, 0xf3,
  0x03, 0x27, 0xe2, 0xe2, 0xec, 0x0c, 0x0c, 0xe9, 0xd5, 0x11, 0x15, 0x22,
  0x0c, 0xe3, 0xf6, 0xef, 0x23, 0x00, 0xf1, 0xea, 0x0e, 0x1d, 0x34, 0x07,
  0x07, 0x23, 0xf3, 0xfa, 0xf1, 0x0e, 0x3a, 0xfc, 0x1b, 0x35, 0x14, 0xe6,
  0x00, 0x11, 0xf5, 0x09, 0x16, 0x00, 0x48, 0x1c, 0xe6, 0xfc, 0xe8, 0xfe,
  0xf0, 0xfb, 0x15, 0x06, 0xf1, 0xd1, 0xe1, 0x05, 0x14, 0x05, 0x04, 0xed,
  0xf1, 0xf8, 0xf9, 0xcf, 0x36, 0x04, 0xc0, 0x11, 0x12, 0x02, 0x10, 0x05,
  0x0f, 0x31, 0xfa, 0xed, 0xd6, 0xf5, 0x06, 0xf8, 0xfc, 0xe8, 0x0b, 0xff,
  0xd3, 0x2b, 0x03, 0xd0, 0x1a, 0x7f, 0x1e, 0xe9, 0x02, 0xd0, 0xc9, 0x06,
  0xf9, 0x04, 0x1a, 0xfa, 0xe7, 0x23, 0xf5, 0x18, 0xfe, 0xe4, 0xac, 0x08,
  0xf3, 0x1e, 0xef, 0x02, 0xe6, 0x0d, 0xec, 0x1d, 0x2f, 0x10, 0x09, 0x1f,
  0x1b, 0xfe, 0xe1, 0xf4, 0xfe, 0xf9, 0x04, 0x3a, 0xd0, 0x1a, 0xeb, 0xfa,
  0xf1, 0x0c, 0xec, 0xc1, 0x11, 0xd0, 0xbd, 0x11, 0xcf, 0xfc, 0xf2, 0xf3,
  0xbf, 0xe0, 0xcb, 0x1a, 0xa2, 0x20, 0x0c, 0x0d, 0x02, 0x16, 0xf8, 0x0c,
  0x03, 0x0c, 0x0c, 0xf8, 0xed, 0x32, 0x0f, 0x15, 0x1b, 0x0a, 0x5b, 0x59,
  0x39, 0xf7, 0xe9, 0xc7, 0x61, 0xec, 0x7f, 0x27, 0xec, 0x3f, 0x22, 0xc4,
  0xfe, 0x18, 0x1d, 0xe1, 0xe0, 0x24, 0x1d, 0xd4, 0x2c, 0x18, 0xfa, 0xeb,
  0xff, 0xdb, 0x69, 0xac, 0x52, 0x5f, 0x41, 0x26, 0x0c, 0x32, 0xdb, 0xcd,
  0x6a, 0x2e, 0xb8, 0x1b, 0xe8, 0x2e, 0x51, 0x1d, 0x24, 0x1c, 0x0c, 0x36,
  0xd8, 0xd1, 0x58, 0x29, 0x29, 0xfd, 0x11, 0x3d, 0xb5, 0x0d, 0xce, 0x18,
  0xf8, 0x30, 0xeb, 0xe0, 0x1d, 0xd1, 0x6a, 0xf4, 0xd1, 0x11, 0x0d, 0x32,
  0xe8, 0x1c, 0xe3, 0xd8, 0xe2, 0x2f, 0x29, 0x09, 0x22, 0xf1, 0x49, 0xd2,
  0x0c, 0xf5, 0x69, 0x4d, 0x13, 0xe4, 0xd8, 0x70, 0x07, 0x2b, 0x3e, 0xd7,
  0xf5, 0xb2, 0x08, 0xc1, 0xd3, 0xf8, 0x21, 0x2f, 0xea, 0x2f, 0x3a, 0xc8,
  0x4c, 0x1e, 0x19, 0xe1, 0x0a, 0xca, 0x08, 0xf2, 0xf0, 0x2b, 0xbe, 0x0d,
  0x38, 0xed, 0xf0, 0xfc, 0xfa, 0x35, 0x01, 0xd5, 0x1b, 0x05, 0x09, 0x5c,
  0xf0, 0xde, 0xf1, 0x28, 0xf2, 0x34, 0xef, 0x07, 0x09, 0xba, 0xe3, 0x42,
  0x36, 0xd5, 0x08, 0xcf, 0x34, 0x0d, 0x53, 0x3a, 0xfd, 0x26, 0x09, 0xd1,
  0x17, 0x0e, 0xfd, 0x07, 0xe9, 0x2f, 0x1e, 0xc7, 0x07, 0xc9, 0x43, 0xe4,
  0x23, 0x01, 0x5f, 0xd0, 0x33, 0x5c, 0x05, 0x27, 0x1a, 0x57, 0xc4, 0xeb,
  0x42, 0x38, 0xe5, 0xf0, 0xf0, 0x75, 0x7f, 0x2a, 0x26, 0x11, 0x1e, 0x0e,
  0xe5, 0xe8, 0x11, 0xd5, 0x26, 0x08, 0x5a, 0x34, 0xfb, 0x09, 0x35, 0x00,
  0x03, 0x23, 0x04, 0xef, 0x10, 0xdf, 0x2d, 0xe8, 0xcf, 0xe7, 0x45, 0xe0,
  0xcc, 0x37, 0xcf, 0xf3, 0x1e, 0x1b, 0x25, 0xfc, 0xf3, 0x5a, 0x2e, 0x10,
  0x46, 0x25, 0xfc, 0x17, 0x0b, 0xe8, 0x25, 0x4f, 0x2a, 0xfb, 0x10, 0xe5,
  0xce, 0xcd, 0x02, 0xd0, 0xdf, 0x13, 0x34, 0x24, 0xce, 0x38, 0x3a, 0xd0,
  0x3b, 0x0e, 0x0b, 0x19, 0x1b, 0xcb, 0x19, 0xc1, 0xd4, 0x1a, 0x09, 0x38,
  0xe9, 0x1c, 0x16, 0xd7, 0xf8, 0x1d, 0x0a, 0xdb, 0x07, 0x27, 0x1f, 0x3e,
  0x07, 0xa8, 0xe7, 0x33, 0xb7, 0x32, 0x03, 0xce, 0x0f, 0xf4, 0x1f, 0x2f,
  0x1a, 0x09, 0x0c, 0xda, 0x4f, 0xfd, 0x7c, 0x0d, 0xcf, 0x00, 0x5e, 0xd9,
  0xfa, 0x20, 0x15, 0x33, 0xf1, 0x29, 0x13, 0xe9, 0x1f, 0x0e, 0x33, 0xe3,
  0x3a, 0xfa, 0x44, 0xf7, 0x3b, 0x3d, 0x44, 0x18, 0x4c, 0x2e, 0xe2, 0xd0,
  0x59, 0x13, 0xe1, 0x10, 0xf8, 0xf8, 0x7c, 0xf8, 0x2b, 0x16, 0x0a, 0x36,
  0x20, 0xfc, 0x01, 0x00, 0x35, 0x14, 0x4a, 0x0f, 0xe5, 0x2d, 0x36, 0x12,
  0x3c, 0x0a, 0x11, 0x05, 0xe0, 0xfc, 0x45, 0xe8, 0xf9, 0x11, 0x1e, 0xef,
  0xee, 0x70, 0x08, 0xf0, 0x3a, 0x02, 0xf6, 0x08, 0x1e, 0x1e, 0xe0, 0x11,
  0x33, 0xd6, 0x33, 0x1c, 0xd3, 0x38, 0x3d, 0x1a, 0x54, 0x10, 0x27, 0xff,
  0x54, 0xf1, 0x00, 0xb6, 0xe6, 0xc3, 0x2f, 0x7f, 0xee, 0x2e, 0xfe, 0xb8,
  0x21, 0x02, 0xf5, 0xc8, 0x1e, 0xde, 0x1b, 0xd4, 0x0c, 0xfe, 0x0b, 0x42,
  0x01, 0x1e, 0x14, 0xf8, 0xfe, 0x17, 0x07, 0xd4, 0x35, 0x2d, 0x07, 0x08,
  0xee, 0xa0, 0x06, 0x4e, 0xa1, 0x43, 0x0c, 0xe1, 0x1e, 0xf5, 0x39, 0x2b,
  0xfa, 0x29, 0xea, 0xdb, 0xdc, 0x39, 0x03, 0xdb, 0xd3, 0xd2, 0xb2, 0x0c,
  0xd6, 0x01, 0xfb, 0x0d, 0x2b, 0xed, 0xde, 0xe7, 0xf0, 0xf2, 0x1e, 0x30,
  0xe1, 0xd2, 0xa9, 0xfc, 0xed, 0x0d, 0xe8, 0xef, 0x23, 0x17, 0xdf, 0x0e,
  0xfd, 0x1f, 0x05, 0x1c, 0xfa, 0x0e, 0x46, 0x02, 0xc4, 0xff, 0xea, 0xf9,
  0xf1, 0x49, 0x1f, 0xf4, 0x0c, 0x24, 0x23, 0xf8, 0x1e, 0x03, 0x14, 0x04,
  0x1e, 0xe7, 0x11, 0xdf, 0x14, 0x0b, 0xf5, 0xe9, 0xf2, 0x1f, 0x0c, 0xff,
  0xff, 0x05, 0xac, 0xc7, 0x18, 0x06, 0x0c, 0x0b, 0x1e, 0xd1, 0xdf, 0x38,
  0x11, 0xef, 0x0c, 0x15, 0xe9, 0x10, 0xf5, 0x2f, 0xea, 0x10, 0x07, 0xb2,
  0x29, 0x81, 0x54, 0xa7, 0x06, 0x13, 0xd6, 0xe5, 0x07, 0xfa, 0xa8, 0xf3,
  0xeb, 0x02, 0xe9, 0xcf, 0xf6, 0x20, 0xfd, 0xe9, 0x21, 0xe4, 0x29, 0x15,
  0x0b, 0x2e, 0x3b, 0xcf, 0x26, 0xfd, 0xdb, 0xba, 0xdd, 0xff, 0x00, 0x10,
  0x20, 0x10, 0xe7, 0xef, 0xc8, 0x22, 0xea, 0x0e, 0x09, 0xef, 0xcd, 0x27,
  0x07, 0x3c, 0x08, 0xa7, 0x23, 0x54, 0x35, 0xe5, 0xe2, 0xf8, 0xae, 0xdd,
  0xe5, 0xfe, 0xf6, 0x13, 0xe0, 0xfa, 0xf0, 0xf9, 0x04, 0xf4, 0x13, 0xe0,
  0xfa, 0x06, 0xef, 0x23, 0xef, 0xcd, 0xe9, 0xdc, 0x17, 0x7f, 0xbc, 0xf3,
  0x23, 0x11, 0x21, 0xe9, 0x17, 0x50, 0xd8, 0x32, 0x27, 0x1e, 0xb0, 0xed,
  0xeb, 0x25, 0xf5, 0x04, 0x21, 0x2f, 0xdf, 0x3e, 0xf5, 0x08, 0x02, 0xfe,
  0x0d, 0x0b, 0x9a, 0xe1, 0xd3, 0xdd, 0x06, 0xe9, 0x36, 0xfc, 0xed, 0xf9,
  0xeb, 0x3f, 0x9a, 0xe6, 0x2f, 0xf3, 0x08, 0xda, 0x49, 0x48, 0x5f, 0xdf,
  0xfb, 0x13, 0x17, 0xfe, 0x1a, 0x28, 0xe3, 0x17, 0x4a, 0x1c, 0xd5, 0xda,
  0x2a, 0x38, 0x10, 0xc0, 0xc9, 0x20, 0x4a, 0x0f, 0xf8, 0x4e, 0xdd, 0xe8,
  0x0f, 0xc4, 0x21, 0xbb, 0xf5, 0x1e, 0x08, 0xeb, 0x0f, 0x32, 0x13, 0x0f,
  0x1d, 0x0a, 0xea, 0xce, 0xbf, 0x4b, 0x0c, 0xbc, 0xca, 0x11, 0x64, 0xe7,
  0xc2, 0x3a, 0x1b, 0xfa, 0x30, 0x40, 0xf5, 0x5a, 0xf2, 0x0f, 0x06, 0xfa,
  0x05, 0xe5, 0x1e, 0x05, 0x8f, 0x04, 0x81, 0xce, 0x28, 0x0f, 0x3f, 0x35,
  0x1c, 0xb8, 0x56, 0xbd, 0xbc, 0xdb, 0x13, 0x00, 0x25, 0x01, 0xe7, 0xf7,
  0x09, 0x11, 0x07, 0x08, 0x14, 0xa5, 0xc1, 0xf7, 0x1b, 0xb2, 0x28, 0xdf,
  0xf3, 0xc6, 0x10, 0x33, 0x14, 0xe4, 0xd7, 0x9c, 0xf7, 0x16, 0x05, 0xd8,
  0x3d, 0xcd, 0x22, 0x2e, 0x3e, 0xa2, 0xd4, 0xf4, 0x18, 0x3d, 0xda, 0x13,
  0xd4, 0xcc, 0xe7, 0x03, 0x04, 0xfa, 0xe7, 0x10, 0xf7, 0xf3, 0x4c, 0x15,
  0xf5, 0x10, 0x0e, 0x71, 0xec, 0xc8, 0xd9, 0xfa, 0x0f, 0xb9, 0x0d, 0xf8,
  0xc9, 0x0a, 0x97, 0x07, 0xe4, 0xe2, 0xbc, 0xb2, 0xfb, 0x2c, 0xea, 0xd6,
  0x0d, 0x08, 0x02, 0x20, 0xf6, 0xf8, 0xdf, 0xf9, 0xf5, 0xa7, 0x30, 0x35,
  0x10, 0xef, 0xff, 0x0e, 0xd6, 0xfd, 0xc0, 0x08, 0xe4, 0x0e, 0xce, 0x02,
  0xe7, 0xe8, 0x28, 0xe9, 0x1a, 0xc3, 0xef, 0x76, 0xf0, 0x0e, 0xf9, 0xbc,
  0xf9, 0x66, 0xf2, 0xec, 0x30, 0x85, 0xe2, 0xb0, 0x0b, 0xba, 0x2e, 0x41,
  0x47, 0x34, 0x2a, 0xf6, 0x1c, 0x09, 0x03, 0xdf, 0xc4, 0x35, 0x2d, 0x9e,
  0x72, 0xf6, 0x14, 0x02, 0x16, 0x19, 0xf9, 0xf0, 0x6a, 0xf2, 0xfe, 0xfb,
  0xfb, 0x22, 0xf1, 0xad, 0x3d, 0x4b, 0x31, 0xdf, 0x20, 0x55, 0xe2, 0x3d,
  0x1f, 0x13, 0xf3, 0x40, 0xe8, 0x62, 0x6d, 0x57, 0xf1, 0x1f, 0xe1, 0x31,
  0x10, 0x89, 0x0f, 0xf9, 0xcd, 0xf3, 0xe7, 0x64, 0x9d, 0x43, 0x49, 0xfb,
  0xcb, 0x45, 0xfa, 0xbf, 0xe3, 0xed, 0x24, 0xe9, 0x8e, 0x02, 0xfa, 0xf7,
  0x9b, 0x38, 0xa1, 0xde, 0x5a, 0x01, 0xda, 0xe1, 0xf5, 0x01, 0x13, 0xf9,
  0xfb, 0xd0, 0x50, 0xf2, 0x14, 0x48, 0x20, 0x6c, 0x71, 0x04, 0x33, 0xc2,
  0xe2, 0xed, 0xeb, 0xbf, 0x9d, 0x06, 0xef, 0x6b, 0xcd, 0x24, 0xfc, 0xde,
  0x01, 0xe3, 0xcd, 0xd2, 0x23, 0x93, 0x0a, 0xd4, 0xad, 0xff, 0xb6, 0xfa,
  0x09, 0xb4, 0xd6, 0xfa, 0xd6, 0x25, 0xf6, 0xc1, 0x05, 0x7f, 0xe5, 0x74,
  0xbe, 0xc9, 0x9b, 0x31, 0xc6, 0x25, 0xe0, 0xea, 0x0b, 0x15, 0x03, 0x04,
  0x05, 0xaa, 0xe3, 0xe8, 0x21, 0x04, 0x25, 0x0d, 0xfb, 0xd8, 0xfc, 0xc4,
  0xc2, 0x1b, 0xf9, 0xfe, 0xd7, 0xfb, 0xfc, 0xee, 0xb6, 0xf7, 0x19, 0x08,
  0x1c, 0x1a, 0x22, 0x7f, 0x02, 0x1f, 0xe9, 0x15, 0x21, 0x05, 0xef, 0xea,
  0x39, 0x08, 0xf4, 0xd6, 0x0d, 0xdd, 0x30, 0xea, 0x22, 0xe0, 0x0b, 0xf9,
  0xf8, 0x29, 0xee, 0x22, 0x44, 0xfc, 0x4c, 0xd0, 0xfb, 0x0d, 0x06, 0x13,
  0x31, 0x05, 0x19, 0x04, 0xef, 0xea, 0xfd, 0xf1, 0x02, 0x10, 0xfc, 0xf0,
  0xf4, 0x20, 0x28, 0x02, 0xec, 0x06, 0x2c, 0xff, 0x08, 0x5a, 0xdf, 0x14,
  0x2e, 0x08, 0xc7, 0xf0, 0xce, 0xe3, 0x32, 0x09, 0xc9, 0x13, 0x34, 0x02,
  0x26, 0xfa, 0x1d, 0x0c, 0x37, 0xcb, 0x1d, 0x0b, 0xee, 0x09, 0x20, 0xc5,
  0x1c, 0x08, 0x16, 0x2e, 0x01, 0x32, 0x1c, 0xf1, 0x4e, 0xd9, 0x26, 0x17,
  0xd3, 0x5d, 0x45, 0xd1, 0xf6, 0x09, 0x19, 0xe5, 0x23, 0x1e, 0x28, 0xeb,
  0x30, 0xca, 0x28, 0x32, 0xd5, 0x32, 0x21, 0xe3, 0x0f, 0x22, 0x1e, 0x38,
  0xf0, 0xd1, 0x10, 0x16, 0x0a, 0x01, 0x08, 0xd8, 0xc3, 0x34, 0x0d, 0xd8,
  0xf6, 0x06, 0x1d, 0xff, 0xea, 0xc6, 0x04, 0xf1, 0x00, 0xfa, 0x0a, 0x2f,
  0x51, 0x21, 0x12, 0x0f, 0x15, 0x00, 0x1d, 0xec, 0x32, 0x20, 0xa1, 0x04,
  0x19, 0x11, 0xfd, 0x1d, 0xea, 0xea, 0x30, 0xcf, 0x21, 0xf3, 0xd2, 0x1d,
  0xe9, 0xde, 0xfc, 0x68, 0x17, 0xf7, 0x2a, 0xcd, 0xeb, 0xe7, 0x0b, 0x53,
  0x35, 0x34, 0xd0, 0xc2, 0x0e, 0x06, 0x35, 0xe7, 0xdc, 0x0a, 0xa5, 0x19,
  0x0f, 0x4c, 0xfb, 0xd9, 0xc8, 0x07, 0x0a, 0x96, 0x15, 0x31, 0xae, 0xda,
  0xe5, 0xb5, 0xe0, 0xd7, 0xcd, 0x36, 0x10, 0x06, 0xbd, 0x1a, 0x34, 0x09,
  0x23, 0x21, 0x08, 0x38, 0x18, 0xb6, 0xc4, 0x2e, 0xd8, 0x20, 0xd9, 0xb0,
  0xda, 0xf6, 0xe1, 0x08, 0xfe, 0x26, 0x0c, 0xf9, 0x33, 0x0a, 0xec, 0xdf,
  0x1e, 0x45, 0x32, 0xc3, 0xef, 0x04, 0x0d, 0xa5, 0x16, 0x7f, 0xfe, 0x15,
  0x29, 0xee, 0xf3, 0x1d, 0xe9, 0x3f, 0x0c, 0xaa, 0x34, 0xfc, 0xfb, 0x3d,
  0x1f, 0xd7, 0x19, 0x2b, 0x19, 0x4a, 0xf9, 0x38, 0x0c, 0xfb, 0xd5, 0x42,
  0xeb, 0x0f, 0x0e, 0x01, 0x19, 0x2c, 0xeb, 0xe1, 0x08, 0x12, 0x24, 0xd0,
  0x2b, 0xf2, 0x87, 0xc1, 0xec, 0xd7, 0xbc, 0x3d, 0x02, 0xc5, 0x04, 0xf8,
  0x14, 0x0b, 0x23, 0xef, 0x2d, 0x29, 0xc8, 0x1e, 0x44, 0xa4, 0x1a, 0x36,
  0x07, 0x2e, 0x03, 0xcb, 0x2e, 0xfd, 0x25, 0xf9, 0x18, 0xf3, 0x08, 0x7f,
  0x0a, 0x11, 0x1c, 0xbc, 0x1b, 0x24, 0x26, 0x06, 0x22, 0x27, 0x36, 0x42,
  0xed, 0x3f, 0x0b, 0x4b, 0xdb, 0xd9, 0x42, 0x2b, 0x15, 0xd9, 0x1c, 0xea,
  0x0f, 0xfa, 0xe0, 0xeb, 0x3e, 0x2d, 0xbd, 0xbb, 0x02, 0xce, 0xbd, 0xf7,
  0x05, 0xa3, 0xd3, 0x1e, 0x16, 0xed, 0xf2, 0xad, 0x1b, 0x3f, 0x01, 0xed,
  0x2e, 0xed, 0xe9, 0xc9, 0x0a, 0xc8, 0xe8, 0xfb, 0xca, 0xcf, 0xdc, 0x06,
  0x62, 0x07, 0xcd, 0x8e, 0x27, 0x0d, 0x13, 0xdb, 0x1a, 0xa8, 0x54, 0xae,
  0xf6, 0x0d, 0xf5, 0xf0, 0x4a, 0x87, 0x27, 0x95, 0xc4, 0xf8, 0x02, 0xe9,
  0xd4, 0xb9, 0x01, 0xee, 0xe7, 0x20, 0x81, 0xe7, 0xfa, 0x3e, 0xf5, 0x1c,
  0xf2, 0xdd, 0xe3, 0xa2, 0x28, 0x17, 0x2a, 0x32, 0xf1, 0xc8, 0x14, 0x12,
  0x2c, 0x2d, 0x25, 0xcf, 0x0e, 0x09, 0x00, 0x46, 0x15, 0xe4, 0xd1, 0xbd,
  0xc5, 0xd7, 0xed, 0x00, 0xff, 0xc1, 0x13, 0xb1, 0xe4, 0xab, 0x14, 0xca,
  0xe6, 0xec, 0xea, 0xed, 0xfa, 0x3e, 0xf3, 0x01, 0x04, 0x99, 0xed, 0xed,
  0x19, 0xf7, 0xe1, 0xe0, 0x1b, 0xe7, 0x26, 0xfd, 0x10, 0xea, 0x3e, 0x15,
  0xc7, 0xc1, 0x01, 0xdf, 0x21, 0x3e, 0xea, 0xf5, 0xc8, 0xe4, 0x32, 0xb7,
  0xf5, 0xf0, 0x20, 0x20, 0x24, 0x23, 0x24, 0x27, 0xde, 0xc0, 0xb1, 0xf2,
  0xaa, 0x3e, 0xad, 0x1d, 0x21, 0x34, 0xf3, 0xa1, 0x45, 0xd7, 0xbd, 0xf1,
  0xfa, 0xfc, 0x11, 0xe7, 0x34, 0xb1, 0x0d, 0x9e, 0xd2, 0x75, 0x19, 0x3e,
  0xfe, 0xc1, 0xed, 0x32, 0x31, 0x21, 0xf9, 0xf7, 0xe3, 0xc4, 0x1f, 0x21,
  0xb9, 0xc8, 0x33, 0xf4, 0xa8, 0x28, 0xcd, 0xfd, 0x1d, 0x1f, 0x32, 0x47,
  0xe6, 0xec, 0xcc, 0xe7, 0x18, 0x3f, 0x30, 0xf7, 0xe5, 0xf8, 0x38, 0xf7,
  0x19, 0x3e, 0x08, 0xea, 0x05, 0x12, 0xf1, 0x09, 0x14, 0xf3, 0x30, 0x04,
  0x38, 0xe3, 0x0a, 0xd4, 0x19, 0x0c, 0xfa, 0x0b, 0x5a, 0x28, 0xa0, 0x0e,
  0x12, 0x0e, 0xef, 0xed, 0xd1, 0xf2, 0x7f, 0xe0, 0x31, 0x02, 0x18, 0x1a,
  0x1b, 0x2f, 0x02, 0xfc, 0xe8, 0x00, 0x19, 0x0f, 0xd3, 0xdc, 0x32, 0xed,
  0x29, 0x2f, 0x11, 0xcb, 0x07, 0x0c, 0x18, 0x2b, 0xde, 0xd9, 0x33, 0x21,
  0x03, 0x29, 0x08, 0xea, 0x30, 0xf6, 0x0c, 0xe9, 0xfe, 0xe0, 0xcd, 0x0e,
  0x09, 0x05, 0xfd, 0x19, 0xf0, 0x34, 0x25, 0x19, 0x0c, 0x2f, 0xf8, 0xd7,
  0xf3, 0xdf, 0x12, 0xf6, 0x47, 0xed, 0xdd, 0x21, 0x03, 0xf0, 0x0d, 0xf7,
  0x33, 0x07, 0xfb, 0xcc, 0x3d, 0xd4, 0xf3, 0xf2, 0x02, 0xc4, 0x1b, 0xf2,
  0xfb, 0x5c, 0x03, 0x15, 0x01, 0xf6, 0x0e, 0xba, 0x14, 0x03, 0xfa, 0x54,
  0xce, 0xd2, 0xf3, 0x46, 0xd5, 0xdf, 0xf7, 0x24, 0x23, 0x0c, 0x2d, 0x2b,
  0x13, 0x0b, 0xcc, 0xee, 0x37, 0xf2, 0x21, 0x05, 0x02, 0x17, 0x1e, 0xd3,
  0xfa, 0x41, 0x0f, 0xda, 0xc7, 0xfe, 0xf3, 0x01, 0xfa, 0x08, 0xea, 0x04,
  0xf6, 0x01, 0x35, 0x63, 0x1f, 0x19, 0xe7, 0xfb, 0x18, 0x5a, 0xee, 0x0c,
  0x21, 0x11, 0xfc, 0x21, 0x19, 0x16, 0x2c, 0xd8, 0x29, 0x09, 0x0e, 0x0e,
  0x04, 0x02, 0x21, 0x13, 0x29, 0xe5, 0x22, 0x12, 0xfd, 0x1f, 0x13, 0xe1,
  0x09, 0x0c, 0x18, 0xed, 0xfa, 0x17, 0x00, 0xe1, 0xfb, 0x02, 0x0d, 0x0a,
  0xd5, 0x09, 0xfd, 0xd3, 0x4d, 0xff, 0x0e, 0xf4, 0x17, 0xdd, 0x1b, 0x19,
  0x24, 0x0b, 0x16, 0x0d, 0xfa, 0xfb, 0x5f, 0x12, 0x04, 0x0e, 0x10, 0xd6,
  0xfd, 0xef, 0x14, 0xef, 0xe7, 0xe1, 0x0f, 0x30, 0xf7, 0x05, 0x0a, 0x06,
  0x30, 0x00, 0xdd, 0xf0, 0x0b, 0xf6, 0x03, 0x1a, 0xf6, 0x13, 0xf4, 0x26,
  0xdc, 0x10, 0x17, 0x03, 0xf7, 0x0a, 0xf7, 0x01, 0x05, 0x7f, 0xf3, 0x51,
  0xee, 0x01, 0xef, 0x09, 0xf9, 0x0d, 0xf0, 0x12, 0xe6, 0xd8, 0x07, 0xf3,
  0xe9, 0x48, 0x3e, 0xe2, 0x16, 0x44, 0x0a, 0xca, 0xf9, 0xf0, 0x10, 0x1a,
  0x60, 0xb7, 0xbf, 0xf9, 0x04, 0x10, 0x37, 0x03, 0x0a, 0x03, 0xe0, 0xec,
  0xd0, 0x15, 0x21, 0xfc, 0x0f, 0x3a, 0x4b, 0x1c, 0xf7, 0x13, 0xc8, 0x96,
  0x64, 0xf7, 0x02, 0xd9, 0x06, 0xe9, 0xd6, 0xc4, 0xb9, 0x01, 0xef, 0x06,
  0xdd, 0x03, 0xde, 0xfb, 0xce, 0x18, 0xff, 0x25, 0xb3, 0x4c, 0xfd, 0x0e,
  0xbb, 0xf5, 0xb7, 0x1b, 0x1e, 0x08, 0x2f, 0xfa, 0xa2, 0x06, 0xf0, 0xd4,
  0x53, 0x3b, 0xc8, 0xfc, 0xe9, 0x03, 0x1a, 0x45, 0x3b, 0x05, 0xed, 0x95,
  0x06, 0x0d, 0x21, 0x04, 0xac, 0x3c, 0xe3, 0x1c, 0x22, 0xe0, 0x0c, 0xe2,
  0x05, 0x1c, 0xaf, 0x0d, 0xfd, 0x07, 0x0c, 0x38, 0x03, 0x26, 0x81, 0xe3,
  0xf4, 0xf2, 0xdf, 0xf6, 0x09, 0xdd, 0xe7, 0xe6, 0xe1, 0xbb, 0xfe, 0xf7,
  0x0a, 0xf6, 0xf1, 0xf8, 0x0b, 0xf1, 0x28, 0xf5, 0xfe, 0x37, 0xe8, 0x22,
  0x03, 0xcf, 0xda, 0x28, 0xf8, 0xf8, 0xf1, 0xf2, 0x12, 0xd2, 0x24, 0xe7,
  0x2c, 0x19, 0xe2, 0xd3, 0x24, 0x23, 0x00, 0xff, 0x81, 0xfc, 0x22, 0xe1,
  0x00, 0x0a, 0x0d, 0x03, 0xf5, 0x12, 0x13, 0xe8, 0x06, 0x2a, 0x0d, 0xdf,
  0x04, 0x3a, 0x0f, 0x12, 0x00, 0x0f, 0x05, 0x24, 0xfa, 0xf3, 0xff, 0x0a,
  0x1c, 0xfb, 0x1a, 0xdd, 0xef, 0x22, 0x1f, 0x21, 0x12, 0x07, 0xfd, 0x18,
  0x27, 0xfd, 0x4a, 0x0a, 0xec, 0xdf, 0x28, 0x17, 0xe1, 0x3b, 0xef, 0x0a,
  0xfc, 0xed, 0x1b, 0x22, 0xcf, 0x16, 0x09, 0xf5, 0x07, 0xed, 0x0a, 0x1d,
  0xfe, 0x00, 0x15, 0x0f, 0xf9, 0x2b, 0x05, 0x0f, 0xfe, 0x0b, 0xfe, 0xf5,
  0x18, 0xea, 0x01, 0xfb, 0x01, 0x15, 0x47, 0x22, 0x06, 0x00, 0x0a, 0x01,
  0x3f, 0x23, 0xf9, 0xef, 0xd8, 0xd2, 0x11, 0x30, 0xf8, 0x00, 0x06, 0x05,
  0x0a, 0xf5, 0xe5, 0xfa, 0xfc, 0xfd, 0x2e, 0x02, 0xf3, 0xe2, 0xf2, 0xfe,
  0xd4, 0xe4, 0x28, 0xf7, 0x03, 0xd5, 0x0c, 0xf1, 0x0a, 0x11, 0x1f, 0x09,
  0x06, 0xc8, 0xe6, 0xfc, 0xbf, 0x2c, 0xfc, 0xef, 0x0d, 0xd1, 0x10, 0x09,
  0x25, 0xec, 0x09, 0xca, 0x51, 0xee, 0x68, 0xfe, 0xd3, 0x27, 0x31, 0xc6,
  0xd9, 0x14, 0x21, 0x25, 0xf2, 0xff, 0xfe, 0xda, 0x31, 0xf0, 0x2c, 0xf8,
  0x22, 0x33, 0x40, 0xf2, 0x3b, 0x3e, 0x24, 0x1b, 0x2f, 0x42, 0xf9, 0xf4,
  0x3c, 0x01, 0xe2, 0x24, 0xed, 0x0d, 0x7f, 0xf2, 0x25, 0x29, 0x02, 0x25,
  0x07, 0xd6, 0xfa, 0x05, 0x2d, 0x05, 0x2a, 0x04, 0xba, 0x3e, 0x28, 0x11,
  0x29, 0x1a, 0x16, 0xff, 0xd2, 0xf1, 0x22, 0xf3, 0xe3, 0x27, 0x10, 0xeb,
  0xd3, 0x6c, 0x03, 0xef, 0x2a, 0x01, 0x0d, 0xed, 0x1c, 0x3f, 0x01, 0x17,
  0x14, 0xf7, 0xe6, 0x13, 0xd1, 0x3d, 0x36, 0x25, 0x4e, 0x13, 0x1f, 0xfb,
  0x15, 0xf1, 0x1a, 0xc8, 0xfe, 0xd3, 0x15, 0x5b, 0xda, 0x11, 0xff, 0xd8,
  0x39, 0xee, 0xfd, 0xe2, 0x1d, 0xe8, 0x11, 0xe1, 0x01, 0x01, 0xf7, 0x3b,
  0xfa, 0x24, 0x18, 0xef, 0xee, 0x03, 0x14, 0xe0, 0x26, 0x6f, 0x29, 0x21,
  0xf5, 0xd4, 0xf8, 0x4b, 0xc7, 0x3b, 0x1a, 0xfe, 0x08, 0x64, 0xfc, 0xf5,
  0xe6, 0x0f, 0xd6, 0xbf, 0x9c, 0xed, 0xc1, 0x21, 0x15, 0xd0, 0xba, 0xc6,
  0xf2, 0xd6, 0xdb, 0x3f, 0xb2, 0xe1, 0x05, 0x20, 0x4f, 0x32, 0x31, 0xe0,
  0x02, 0xb5, 0xba, 0xe4, 0xb4, 0x0b, 0x04, 0x1a, 0xee, 0x25, 0xff, 0xf6,
  0xce, 0xf1, 0x1a, 0x1b, 0xc6, 0x9b, 0x06, 0xad, 0x42, 0x0b, 0xcb, 0x30,
  0x20, 0xfa, 0xce, 0x04, 0x04, 0xa2, 0xef, 0xf0, 0x5a, 0x7a, 0x18, 0x0d,
  0x2e, 0x1a, 0x0d, 0x10, 0xec, 0x41, 0xfe, 0xcb, 0xe8, 0xef, 0xea, 0x04,
  0x31, 0xef, 0x47, 0x0c, 0x92, 0xf8, 0x0a, 0x4f, 0x0d, 0xda, 0xf3, 0xec,
  0x0e, 0xd9, 0xfb, 0x2c, 0x4e, 0x17, 0xfa, 0x35, 0xb5, 0x19, 0x04, 0x53,
  0x00, 0xdf, 0xdf, 0x0f, 0x0d, 0x31, 0x8b, 0xe5, 0x49, 0x0b, 0x0a, 0xf6,
  0x14, 0xec, 0x00, 0x1b, 0xdf, 0x7f, 0xf8, 0x2f, 0x50, 0x3c, 0xd0, 0x2e,
  0x5f, 0x1a, 0x5a, 0x0a, 0x1b, 0x15, 0x0a, 0xe1, 0x3c, 0xdb, 0xf3, 0x1f,
  0xf5, 0xe6, 0xea, 0x1c, 0xdc, 0x15, 0x32, 0xa3, 0x08, 0x12, 0xf5, 0xd9,
  0xca, 0xc3, 0x6c, 0xef, 0x23, 0xf8, 0x3a, 0x09, 0xd4, 0x1b, 0xed, 0xfc,
  0x30, 0xf7, 0x0f, 0x1a, 0x1d, 0x0b, 0x0e, 0x0b, 0x14, 0xe2, 0xdb, 0xc4,
  0x17, 0x26, 0x2a, 0xc2, 0x2d, 0xed, 0x05, 0xf0, 0x26, 0x7f, 0xe2, 0x12,
  0xe3, 0x2e, 0xe8, 0x04, 0xfa, 0x06, 0x2e, 0xfb, 0xed, 0x01, 0x28, 0xc0,
  0x2d, 0xef, 0xf1, 0x07, 0xda, 0x0e, 0x27, 0x17, 0xcc, 0xc5, 0xde, 0x02,
  0xdc, 0x18, 0x0d, 0x9a, 0xcb, 0x29, 0x26, 0x09, 0xde, 0x12, 0xd0, 0xd5,
  0x07, 0x07, 0x1d, 0xd1, 0xcd, 0xe9, 0x25, 0xd1, 0x32, 0x2d, 0x06, 0x22,
  0x08, 0x23, 0xd2, 0x0f, 0xfe, 0x44, 0x17, 0x57, 0xfc, 0x1e, 0x05, 0xe1,
  0x0f, 0x09, 0xdc, 0xff, 0xe9, 0xdc, 0x39, 0xfc, 0xe7, 0x0e, 0xf8, 0xac,
  0x24, 0xd2, 0x19, 0xe6, 0x49, 0x37, 0xc7, 0xe8, 0xdb, 0x1b, 0xf8, 0xf2,
  0xfc, 0x1a, 0x11, 0xac, 0x10, 0xe7, 0xdd, 0xed, 0xdb, 0x62, 0x35, 0x35,
  0xf2, 0x00, 0x21, 0x12, 0xc2, 0x5e, 0xe9, 0xc7, 0x26, 0x9a, 0xaf, 0xe8,
  0xf3, 0xf4, 0x0d, 0x8e, 0x03, 0x12, 0x61, 0x08, 0xcb, 0x28, 0x3a, 0xcc,
  0x13, 0xf2, 0xc6, 0xf1, 0xe8, 0x2b, 0xfb, 0x02, 0xe5, 0xed, 0x1f, 0x17,
  0x03, 0xbe, 0x12, 0xea, 0xf8, 0x3f, 0x0d, 0x2e, 0x1c, 0x1a, 0xd5, 0xf8,
  0xd3, 0x44, 0xf7, 0x0e, 0x14, 0xf5, 0x7f, 0x3c, 0xe7, 0x0f, 0xe4, 0x22,
  0xeb, 0xfa, 0x04, 0xe5, 0xe1, 0x20, 0x03, 0x3b, 0xe3, 0xfc, 0x50, 0x2a,
  0x12, 0x21, 0xec, 0xed, 0x07, 0xfd, 0x04, 0x3e, 0xfa, 0x0b, 0x38, 0xe6,
  0xc7, 0x45, 0x18, 0x06, 0x24, 0x25, 0xea, 0xf7, 0xff, 0x2a, 0x1e, 0xfc,
  0xff, 0x4a, 0xea, 0xf2, 0xc8, 0xe0, 0x44, 0x3d, 0x1f, 0x39, 0x20, 0xef,
  0xb6, 0xff, 0x20, 0xf1, 0x12, 0xe2, 0x1b, 0x21, 0xc2, 0xff, 0x32, 0xaa,
  0xfa, 0x08, 0xf1, 0xe9, 0xf0, 0xb2, 0xed, 0xc4, 0xda, 0xcd, 0xbf, 0x16,
  0xef, 0x6c, 0x00, 0xe6, 0xde, 0x1b, 0x35, 0x88, 0x19, 0xf1, 0xf4, 0x39,
  0xe1, 0x1c, 0xbf, 0x1b, 0xed, 0x26, 0xfc, 0x30, 0xc4, 0x0e, 0xf3, 0x05,
  0xf5, 0x88, 0x34, 0x0c, 0x00, 0xfc, 0xef, 0xd9, 0xea, 0x1a, 0xeb, 0x29,
  0xec, 0xe0, 0xe9, 0xec, 0xdd, 0x9f, 0x2f, 0x36, 0xc7, 0x11, 0x1b, 0x4d,
  0x2a, 0xde, 0xdd, 0x05, 0xcc, 0x81, 0x0d, 0xf3, 0xdc, 0xb8, 0x15, 0xfa,
  0xc0, 0xc0, 0x22, 0xda, 0x4e, 0xb2, 0xdd, 0x10, 0x19, 0x2e, 0xe3, 0x1f,
  0x1a, 0xc4, 0x90, 0xf7, 0xd8, 0xd2, 0xeb, 0xe8, 0x0e, 0x01, 0x0c, 0xf5,
  0x07, 0xdf, 0xd4, 0x09, 0x12, 0x10, 0x2c, 0x18, 0xe3, 0x1f, 0x03, 0xe3,
  0xfe, 0x13, 0x10, 0xca, 0xaf, 0xf6, 0x0a, 0x1c, 0x15, 0xdc, 0xf5, 0xf3,
  0xe6, 0x1c, 0x03, 0x85, 0x10, 0xd1, 0xf8, 0xd8, 0xcb, 0x23, 0xfb, 0xdf,
  0x19, 0xfd, 0x21, 0x0b, 0xfc, 0xe8, 0x57, 0xdd, 0x10, 0xf6, 0x2d, 0x43,
  0xff, 0xfb, 0x08, 0x05, 0x28, 0xe2, 0xdb, 0x1d, 0x18, 0x0c, 0xda, 0xc8,
  0xdd, 0x0e, 0x0c, 0xf4, 0x04, 0xe8, 0x26, 0xfd, 0x0c, 0x16, 0x17, 0xd6,
  0x1b, 0x15, 0xe2, 0x23, 0xc7, 0x15, 0x37, 0x00, 0x4b, 0x18, 0xef, 0x0f,
  0xd3, 0x3c, 0xf1, 0xd3, 0x05, 0xc5, 0x2d, 0xe7, 0xe4, 0x21, 0x1b, 0xe2,
  0x3e, 0xe1, 0xca, 0x1e, 0x17, 0x15, 0x22, 0xe1, 0x15, 0xeb, 0x26, 0xe2,
  0xc9, 0xd9, 0x1e, 0xfd, 0xba, 0x02, 0x45, 0x03, 0x03, 0x49, 0xe3, 0x10,
  0x33, 0xca, 0xfb, 0xf4, 0xef, 0xeb, 0x4c, 0xe0, 0xf8, 0xd2, 0x1c, 0x0c,
  0xdd, 0x2a, 0xdb, 0x36, 0x04, 0x31, 0xdd, 0x0e, 0xe0, 0xf0, 0x50, 0x31,
  0x07, 0x19, 0xd9, 0x11, 0xfa, 0xc1, 0x23, 0x1b, 0x40, 0x1f, 0xd8, 0x06,
  0x2b, 0xec, 0xf9, 0xf2, 0xfc, 0x0f, 0xc9, 0xdd, 0xe9, 0x2e, 0x81, 0x3c,
  0x13, 0xc8, 0x3b, 0xdf, 0x02, 0xef, 0xf7, 0xf0, 0xdf, 0x2b, 0x73, 0xf3,
  0xbc, 0x2e, 0xdc, 0x18, 0xcf, 0x17, 0x06, 0x40, 0xde, 0x28, 0x1c, 0xda,
  0xff, 0xd7, 0x0b, 0x15, 0x15, 0x27, 0xb4, 0x13, 0x9c, 0xde, 0x32, 0x26,
  0xb0, 0x45, 0xff, 0xf9, 0xd7, 0xdd, 0x3b, 0xf4, 0xf6, 0xf7, 0xde, 0xef,
  0xf5, 0xf1, 0x1a, 0xfe, 0xc5, 0x12, 0xcc, 0x2c, 0xc8, 0x2e, 0x34, 0x04,
  0x21, 0xd8, 0x3f, 0x13, 0xd6, 0x05, 0x10, 0x23, 0xf6, 0x19, 0xd1, 0xea,
  0x12, 0xdd, 0xe4, 0x00, 0x1b, 0x09, 0xf1, 0x24, 0xd2, 0x9e, 0x24, 0x4f,
  0xea, 0xb9, 0xba, 0x23, 0xf2, 0x03, 0xf4, 0x11, 0x13, 0xfb, 0x2a, 0x04,
  0x87, 0xe7, 0x08, 0x03, 0xda, 0xe4, 0x2f, 0x2a, 0x09, 0x22, 0xbe, 0x13,
  0xee, 0x0c, 0xf1, 0x18, 0xbc, 0x4a, 0xe4, 0xa2, 0xe5, 0xeb, 0xeb, 0xeb,
  0xf5, 0xd2, 0x10, 0x38, 0xe6, 0x10, 0xe2, 0x05, 0x28, 0x20, 0xe4, 0xf1,
  0x40, 0xf7, 0xf0, 0xd4, 0xc8, 0x3a, 0xd6, 0xf6, 0xd0, 0xf2, 0xe9, 0xd0,
  0xda, 0x5a, 0xce, 0xc8, 0xe5, 0xd1, 0x10, 0x30, 0xff, 0xd4, 0xed, 0x30,
  0x04, 0x0c, 0x00, 0x3b, 0x61, 0x11, 0xe4, 0xe2, 0x0e, 0x07, 0xd8, 0xec,
  0xbb, 0xa2, 0x05, 0x7f, 0xd0, 0xf4, 0xe9, 0x23, 0x12, 0x3e, 0x03, 0xce,
  0x18, 0xe7, 0x15, 0x2f, 0xfa, 0x33, 0x13, 0xde, 0xeb, 0xf0, 0xff, 0x96,
  0xbe, 0x0f, 0x27, 0x02, 0x31, 0xfb, 0x4b, 0xf9, 0x24, 0xfd, 0xff, 0xad,
  0xeb, 0x15, 0xe3, 0x88, 0x22, 0xf4, 0x02, 0xce, 0xc7, 0x0b, 0xfb, 0xfd,
  0xd9, 0x2a, 0xf7, 0x19, 0x0b, 0x36, 0xc0, 0xbb, 0xe0, 0xd6, 0x20, 0xe6,
  0xed, 0xdb, 0xf3, 0x20, 0x1f, 0x22, 0xf3, 0x12, 0x03, 0x07, 0x0e, 0x0b,
  0xe7, 0x03, 0xf1, 0x0b, 0x0f, 0xc1, 0xf1, 0xdc, 0x1f, 0x9d, 0xf7, 0xe6,
  0x22, 0x1e, 0x44, 0x0d, 0x24, 0xd8, 0xd3, 0x34, 0xc1, 0xf9, 0x30, 0xfa,
  0xe8, 0xf1, 0x08, 0xc3, 0x1f, 0x53, 0xf2, 0x0f, 0x05, 0xec, 0xff, 0xf5,
  0x50, 0xa2, 0xe1, 0x18, 0xde, 0x20, 0xd6, 0xfd, 0x11, 0x29, 0xe9, 0x1a,
  0xf4, 0x00, 0xbb, 0xeb, 0xe6, 0x33, 0xd9, 0xb6, 0x04, 0x2f, 0x18, 0xf4,
  0xee, 0x7f, 0x0e, 0xc9, 0xe9, 0x2d, 0xa1, 0x25, 0xd0, 0x6b, 0x01, 0x56,
  0xf5, 0x91, 0xfd, 0x42, 0xf2, 0x43, 0x9b, 0xe8, 0xd4, 0xf2, 0xef, 0xdb,
  0x0b, 0xf7, 0xf0, 0x51, 0x08, 0xc1, 0x2e, 0xed, 0xf2, 0x62, 0xf9, 0x10,
  0xdc, 0xde, 0xe5, 0xd4, 0xe0, 0x20, 0xeb, 0xca, 0x15, 0x19, 0x4b, 0xe6,
  0x46, 0x47, 0x68, 0xf6, 0xe7, 0xed, 0x1f, 0xf1, 0x2b, 0x0f, 0xbd, 0x19,
  0x0e, 0x4c, 0x0e, 0xfc, 0xdc, 0x02, 0x62, 0x33, 0x10, 0x5b, 0xa6, 0xe2,
  0xb7, 0x2d, 0xef, 0xe0, 0xbd, 0xdd, 0xe3, 0xb3, 0x14, 0x0f, 0x18, 0xc7,
  0xc5, 0xfa, 0x1b, 0x62, 0xff, 0xc4, 0xc3, 0x10, 0xd7, 0x00, 0xd7, 0x72,
  0xef, 0xc8, 0x00, 0xfa, 0x0e, 0xfa, 0xda, 0x2e, 0xfa, 0xa7, 0xdc, 0xfa,
  0xeb, 0xc5, 0xec, 0x3c, 0xf7, 0x90, 0xf8, 0xdc, 0x0c, 0xc7, 0x7f, 0x29,
  0x0f, 0xcc, 0xad, 0x24, 0x0c, 0xd6, 0xa5, 0x09, 0xc3, 0xb5, 0x53, 0xf1,
  0xac, 0x24, 0x0d, 0x19, 0x17, 0xb3, 0x07, 0xf7, 0x1c, 0x23, 0x1f, 0x48,
  0xec, 0xcc, 0x1a, 0x44, 0xbf, 0xf1, 0xf3, 0xf6, 0x06, 0x0b, 0x36, 0x1a,
  0x27, 0xf6, 0x0a, 0x16, 0xc8, 0x08, 0x9a, 0xf8, 0x20, 0x27, 0xb5, 0xe2,
  0x5d, 0xa2, 0x98, 0x14, 0xdd, 0xc5, 0xfc, 0x3d, 0xde, 0xc1, 0xd3, 0xf2,
  0x0a, 0x6a, 0xc5, 0x8b, 0x06, 0xef, 0xbe, 0x19, 0x00, 0x00, 0x00, 0x00,
  0x76, 0xf8, 0xff, 0xff, 0x04, 0x00, 0x00, 0x00, 0xa0, 0x05, 0x00, 0x00,
  0xa5, 0xcb, 0xb6, 0x41, 0xb8, 0xe1, 0x44, 0x89, 0xb4, 0x13, 0xa7, 0x36,
  0x4d, 0x2d, 0xae, 0x0f, 0xfc, 0xb0, 0xed, 0xe8, 0xd0, 0x57, 0x60, 0x4b,
  0xcc, 0x2d, 0x49, 0xcf, 0xff, 0x02, 0xe5, 0x09, 0x0b, 0x3f, 0x1f, 0xdb,
  0x1b, 0xd6, 0xf5, 0x12, 0x1d, 0xe8, 0xc3, 0x43, 0x35, 0xfc, 0x81, 0x45,
  0xea, 0xdc, 0x70, 0xb5, 0x2d, 0xac, 0x3b, 0x3d, 0xc4, 0xed, 0x1c, 0xa8,
  0x26, 0x2b, 0xdb, 0xe2, 0xf7, 0x15, 0x20, 0x44, 0xec, 0xd5, 0x5b, 0xb1,
  0xe1, 0xad, 0x27, 0x27, 0x4b, 0x51, 0x4d, 0xda, 0x20, 0xe6, 0xaf, 0xc2,
  0xff, 0x0e, 0xc5, 0x33, 0x5d, 0xcd, 0x1e, 0xd7, 0xf8, 0x13, 0x34, 0xb2,
  0x23, 0x60, 0x7f, 0xf8, 0x09, 0xfd, 0xce, 0x01, 0x3d, 0xe3, 0x2f, 0x2b,
  0x26, 0xdc, 0x2b, 0xfc, 0xf4, 0xfc, 0xdc, 0xff, 0x1b, 0x39, 0x2c, 0x2e,
  0x0f, 0xff, 0x13, 0xff, 0x24, 0xf0, 0x0c, 0x5f, 0x12, 0xd6, 0x34, 0x07,
  0xfe, 0xc5, 0xef, 0xf7, 0x05, 0x18, 0xed, 0x04, 0xc7, 0x1d, 0x58, 0x1b,
  0xfc, 0xf1, 0xe6, 0x08, 0x10, 0xfb, 0x57, 0x23, 0xf7, 0xf5, 0x08, 0xff,
  0x0f, 0x0c, 0xfd, 0xe1, 0xba, 0xda, 0x17, 0x53, 0xf8, 0x10, 0xdd, 0x2d,
  0xd7, 0xf8, 0x9d, 0xcb, 0x1a, 0xf6, 0x0b, 0xcc, 0x21, 0x32, 0x3c, 0xec,
  0xc7, 0x3c, 0xd5, 0xc1, 0x12, 0xfa, 0x15, 0x6a, 0xd7, 0xee, 0x05, 0xf1,
  0xe1, 0xd9, 0x05, 0x9f, 0x7f, 0x6d, 0x41, 0xf8, 0xd6, 0xc8, 0xa3, 0xe7,
  0x2d, 0xa1, 0x1f, 0x02, 0xc5, 0xfb, 0x0f, 0x3f, 0xff, 0x39, 0xb9, 0xf2,
  0xf8, 0xf7, 0x09, 0xed, 0xfe, 0xb6, 0xfd, 0x65, 0x1f, 0xc4, 0x5e, 0x5a,
  0x39, 0x3a, 0xf3, 0xee, 0x96, 0xee, 0x1d, 0xa3, 0x3c, 0xc7, 0x63, 0x2c,
  0x1b, 0x17, 0xef, 0x11, 0xe3, 0xe0, 0xae, 0x17, 0x13, 0x28, 0xf4, 0x3a,
  0x26, 0x20, 0x08, 0xe5, 0x79, 0x26, 0x11, 0x14, 0x00, 0x2f, 0xf9, 0xd3,
  0xff, 0x09, 0xea, 0x01, 0x3a, 0x13, 0x1a, 0x02, 0xf9, 0x08, 0x19, 0x05,
  0x06, 0x35, 0x0f, 0xd3, 0x00, 0x1f, 0x11, 0x23, 0x0a, 0x0f, 0xf0, 0x19,
  0xf2, 0xf3, 0xe7, 0xc7, 0x02, 0xf7, 0x01, 0xd4, 0xfb, 0x0b, 0xef, 0xf0,
  0x08, 0x33, 0x16, 0x30, 0xe7, 0xee, 0x0e, 0x0d, 0x39, 0xde, 0xfa, 0xf8,
  0x20, 0xff, 0x0f, 0x11, 0x39, 0xed, 0x09, 0x06, 0x01, 0xa9, 0xc0, 0xcb,
  0xf8, 0x09, 0xcd, 0x10, 0xd4, 0x04, 0x3c, 0x3b, 0x39, 0x36, 0x0d, 0xd5,
  0xef, 0x04, 0x00, 0x25, 0x18, 0x02, 0x06, 0xe6, 0xcd, 0x25, 0xef, 0xe0,
  0xff, 0x09, 0xf8, 0x81, 0xc3, 0xb6, 0xad, 0x1f, 0x1e, 0xe5, 0x08, 0xd3,
  0xed, 0x4a, 0x27, 0x30, 0xf1, 0xeb, 0x6e, 0x30, 0xf6, 0xed, 0xe5, 0x29,
  0x25, 0x14, 0xbe, 0x1c, 0x2f, 0x38, 0x0a, 0xeb, 0x33, 0x09, 0xe7, 0xdc,
  0xf2, 0xd5, 0xd1, 0x1d, 0x07, 0x16, 0xed, 0x25, 0x50, 0x05, 0x81, 0x14,
  0xf0, 0xfd, 0xe9, 0xee, 0x1c, 0xed, 0x07, 0x1c, 0xa0, 0xf3, 0x17, 0x64,
  0x13, 0xd4, 0x46, 0x6e, 0x15, 0xee, 0xdb, 0xfb, 0x12, 0xba, 0x0f, 0xc3,
  0xd1, 0x20, 0x1d, 0xd1, 0xb4, 0x28, 0x71, 0x5f, 0x1d, 0x2f, 0xe7, 0xf0,
  0x27, 0x3a, 0x0a, 0xd8, 0x0e, 0x16, 0xd5, 0xc0, 0x36, 0x2d, 0xec, 0x32,
  0x41, 0xf9, 0x2b, 0xdd, 0xf5, 0xd2, 0xf5, 0x13, 0x37, 0x2c, 0xf3, 0x01,
  0xe7, 0x28, 0xf6, 0x2b, 0xdf, 0xd7, 0xeb, 0x20, 0xe2, 0xdc, 0x0b, 0xf8,
  0xdf, 0xd4, 0x05, 0x51, 0x91, 0xb0, 0xc4, 0xaf, 0x81, 0xc7, 0xd5, 0xfd,
  0xfa, 0xfc, 0x37, 0x11, 0x1d, 0xe2, 0x2f, 0x04, 0x01, 0x19, 0xeb, 0xe6,
  0xd9, 0xdd, 0xd0, 0xd1, 0x09, 0xde, 0xe7, 0x0d, 0x1d, 0xe6, 0xd0, 0x1a,
  0x0c, 0x0e, 0xe0, 0x9a, 0x18, 0xa5, 0xfb, 0xf2, 0x1b, 0xdc, 0x11, 0x08,
  0x22, 0xf0, 0xea, 0x0d, 0x02, 0x0e, 0x19, 0xf7, 0x3d, 0x29, 0x2d, 0xe7,
  0x07, 0xe9, 0x43, 0xf5, 0xe2, 0xed, 0xf4, 0x5c, 0xf4, 0xce, 0xdb, 0x10,
  0x3b, 0xf1, 0xe6, 0x28, 0xff, 0xf3, 0xe5, 0x06, 0xf2, 0x20, 0xfd, 0xf1,
  0x23, 0xd9, 0xdf, 0x12, 0xb9, 0xea, 0xda, 0xfc, 0xdf, 0xd7, 0x4f, 0xee,
  0x81, 0xf0, 0x1b, 0xd6, 0xa8, 0xe8, 0x15, 0xfc, 0x05, 0xf8, 0x0a, 0xe5,
  0x03, 0xfb, 0x15, 0xfd, 0xf3, 0x05, 0x03, 0xfb, 0x09, 0x0f, 0xe2, 0xce,
  0x0f, 0xf6, 0xd9, 0xf6, 0xe9, 0x06, 0xfc, 0x0c, 0xe8, 0xb9, 0x08, 0xe1,
  0x22, 0x17, 0xff, 0x24, 0xf4, 0x1d, 0xfb, 0xf3, 0xe3, 0x2a, 0x21, 0xfc,
  0xf6, 0x17, 0x07, 0xf2, 0xec, 0x1c, 0xf9, 0x13, 0xf6, 0xfb, 0x0f, 0x14,
  0x01, 0xf3, 0xe8, 0x18, 0xf4, 0x17, 0xf4, 0xd8, 0xee, 0x58, 0x0e, 0xe7,
  0xd4, 0x0b, 0xf5, 0x2e, 0x10, 0x14, 0x21, 0xee, 0x0c, 0xfe, 0xdc, 0xe6,
  0xfc, 0xeb, 0x38, 0x1a, 0x30, 0x02, 0xee, 0x11, 0x89, 0xda, 0xfb, 0x07,
  0xfd, 0xd8, 0xfe, 0x08, 0x26, 0xf0, 0xc8, 0x0d, 0xdf, 0xfa, 0xe9, 0xf9,
  0x15, 0xc4, 0x19, 0x01, 0x3d, 0x0d, 0xd9, 0x25, 0xc0, 0x1f, 0x06, 0xc7,
  0x0c, 0x11, 0xd1, 0xf7, 0x1f, 0xe1, 0xf0, 0x0d, 0xe8, 0x7f, 0x2b, 0x02,
  0xe8, 0xff, 0x19, 0xed, 0x1e, 0xf0, 0x27, 0xf0, 0x21, 0xf3, 0xfb, 0x18,
  0xec, 0xd6, 0x18, 0x41, 0xf7, 0xac, 0x0f, 0xf0, 0xa7, 0xf5, 0xf7, 0xf5,
  0x35, 0x2c, 0xe4, 0xd1, 0x24, 0x08, 0xe2, 0x15, 0x0f, 0xe8, 0x5a, 0x23,
  0xed, 0x05, 0x3c, 0xe1, 0xd0, 0x37, 0x29, 0xe8, 0x06, 0x34, 0xcb, 0xda,
  0xbf, 0x17, 0x9d, 0x32, 0x15, 0x21, 0x09, 0x1f, 0x8a, 0x08, 0x3b, 0xd8,
  0xad, 0xd4, 0x7f, 0x9c, 0xd3, 0xc2, 0xa9, 0x0b, 0x43, 0xe8, 0x6d, 0xca,
  0xfe, 0xa0, 0x03, 0xe8, 0xcd, 0xef, 0x1e, 0xf7, 0xf1, 0x05, 0xea, 0xd2,
  0x0e, 0xa6, 0xf5, 0x27, 0x24, 0x0b, 0xb5, 0x19, 0xfc, 0xb8, 0xd0, 0xf8,
  0xe6, 0x17, 0x1a, 0x33, 0x38, 0xf6, 0xd7, 0xc3, 0x90, 0x0b, 0x2b, 0x15,
  0xfc, 0x07, 0x52, 0xdc, 0xe2, 0x2a, 0xe5, 0x06, 0x11, 0x16, 0xe5, 0xff,
  0xe9, 0x28, 0x2a, 0x27, 0xf9, 0x0b, 0x2f, 0xca, 0x01, 0x1a, 0xde, 0x0d,
  0x14, 0x1d, 0x01, 0xf0, 0x04, 0xff, 0xf0, 0xf5, 0xe5, 0xef, 0xf3, 0x1e,
  0xe3, 0x0a, 0xf3, 0xba, 0xeb, 0xf9, 0xb3, 0x0e, 0x0f, 0x0d, 0x25, 0x17,
  0x01, 0xd5, 0xf7, 0xfb, 0xdd, 0x13, 0xf8, 0x01, 0x02, 0x16, 0xd7, 0xc2,
  0x00, 0xfb, 0xee, 0xda, 0x31, 0xf5, 0x01, 0x1f, 0xd7, 0x00, 0x23, 0xed,
  0x85, 0xe0, 0x1a, 0xa9, 0x1e, 0x1f, 0xd8, 0x81, 0xfb, 0xf0, 0x98, 0xf1,
  0xeb, 0x09, 0xdf, 0xfd, 0x05, 0x30, 0x0d, 0x05, 0x36, 0xd7, 0xf9, 0x16,
  0xeb, 0x28, 0xcc, 0xb2, 0x81, 0x09, 0xe4, 0x07, 0xdc, 0x9e, 0xfc, 0xd2,
  0xc0, 0x0e, 0xe1, 0x05, 0xcc, 0x25, 0x06, 0xd8, 0x0c, 0x16, 0x11, 0x26,
  0x06, 0x10, 0x28, 0x02, 0xff, 0xe0, 0xfc, 0xf7, 0xda, 0xc7, 0x2c, 0xec,
  0xff, 0x22, 0x1c, 0xf3, 0x0c, 0xfa, 0x11, 0x1a, 0x09, 0xfb, 0xff, 0xdd,
  0x24, 0xf3, 0xf0, 0x10, 0xea, 0x11, 0x0d, 0x03, 0x26, 0x11, 0x0d, 0xe9,
  0x09, 0x3b, 0xce, 0xf4, 0xbb, 0x23, 0xc4, 0xe9, 0x19, 0x1e, 0x05, 0xed,
  0xfd, 0x18, 0x0a, 0xf9, 0x0a, 0x2c, 0xd5, 0x11, 0xfc, 0x36, 0x32, 0x10,
  0xf7, 0x01, 0x04, 0x1b, 0xed, 0x03, 0xae, 0x21, 0x18, 0x5f, 0xf3, 0x28,
  0xd8, 0xe0, 0x0e, 0x31, 0x23, 0x4f, 0xb2, 0x2c, 0x16, 0xde, 0xbe, 0xf0,
  0x15, 0xbc, 0x70, 0x32, 0xf3, 0x9c, 0xf3, 0x0b, 0x47, 0xe8, 0x4d, 0xc0,
  0x23, 0x2f, 0x1c, 0x5e, 0xea, 0xd6, 0x39, 0xf9, 0x33, 0x39, 0xda, 0xe5,
  0xab, 0x19, 0xea, 0x0c, 0xe9, 0xf2, 0xe7, 0x00, 0xe9, 0x05, 0x03, 0x37,
  0x09, 0x36, 0x3b, 0x1f, 0xdc, 0x01, 0xdb, 0x1b, 0xea, 0x81, 0xdb, 0xa6,
  0xdf, 0x6e, 0xdf, 0x36, 0xcc, 0xdf, 0xb6, 0x03, 0x12, 0x81, 0x4f, 0x57,
  0xd2, 0x0b, 0x1e, 0xe8, 0x78, 0xd7, 0x21, 0xc4, 0xee, 0x2b, 0x0b, 0xc2,
  0xed, 0xfb, 0x02, 0x07, 0x01, 0xf7, 0xe4, 0xde, 0x01, 0x17, 0xd4, 0x27,
  0x1f, 0xc9, 0x0f, 0x52, 0xf7, 0xb3, 0x05, 0x90, 0xbd, 0x24, 0x33, 0xe8,
  0x31, 0x1e, 0x34, 0x9c, 0xe2, 0xc8, 0xcf, 0xe1, 0xf4, 0xe4, 0x21, 0xfe,
  0xdf, 0x33, 0x01, 0x14, 0x02, 0x29, 0xf5, 0x81, 0x2e, 0xf6, 0x91, 0xc4,
  0x03, 0x33, 0xf9, 0xce, 0xf7, 0x83, 0x32, 0xf1, 0x16, 0xab, 0xc8, 0x62,
  0x34, 0x22, 0x2f, 0x4c, 0xfe, 0x2b, 0xea, 0xe9, 0x32, 0xc5, 0x0b, 0xf3,
  0xdd, 0x18, 0xe7, 0x2b, 0xa6, 0xb5, 0xdc, 0x1e, 0xb4, 0xd9, 0xf1, 0x1a,
  0xd9, 0x12, 0x29, 0xd6, 0x03, 0x38, 0xef, 0xdc, 0xf1, 0xea, 0xfb, 0x0e,
  0xfe, 0x1a, 0xf8, 0x04, 0xf9, 0x0f, 0xf5, 0xfa, 0xe0, 0x03, 0xe2, 0xc8,
  0x1c, 0x11, 0xfb, 0x06, 0x2a, 0xfc, 0xe7, 0x0c, 0x2d, 0x09, 0x18, 0x13,
  0x02, 0x06, 0x10, 0x1c, 0xfc, 0x11, 0x14, 0x37, 0x02, 0x11, 0x08, 0x0a,
  0xef, 0x03, 0x07, 0xf7, 0x00, 0xe8, 0x0b, 0xfe, 0xff, 0xf2, 0x01, 0xff,
  0x15, 0xf3, 0x0f, 0x12, 0xdb, 0x10, 0x04, 0xed, 0xed, 0x05, 0x10, 0xb2,
  0xd0, 0x06, 0xd9, 0xf4, 0x1e, 0xdb, 0xed, 0x00, 0x0f, 0x9e, 0xe2, 0xef,
  0xe7, 0x07, 0x0f, 0xd9, 0xdf, 0xd4, 0x02, 0x81, 0xeb, 0x07, 0xde, 0xe8,
  0xf5, 0x02, 0xd5, 0xf7, 0xfb, 0xb1, 0xff, 0xfd, 0x03, 0xd6, 0xf3, 0xc7,
  0xd6, 0xf1, 0xf8, 0x81, 0xf6, 0xff, 0xc1, 0xdd, 0xfc, 0xd2, 0xd1, 0xdf,
  0xe5, 0xd1, 0xb0, 0x24, 0x20, 0xfe, 0x1e, 0x1a, 0xf8, 0x1b, 0x17, 0xdc,
  0xf8, 0xfe, 0xf7, 0x1b, 0xf0, 0x04, 0xed, 0x05, 0x23, 0xff, 0xd8, 0x16,
  0x02, 0xf3, 0x1f, 0xec, 0x0f, 0x25, 0x12, 0xfc, 0x38, 0x02, 0x33, 0x1c,
  0x07, 0xff, 0x2b, 0x04, 0x25, 0xf2, 0x02, 0x16, 0x17, 0xfb, 0x13, 0x06,
  0x18, 0x02, 0xf5, 0x11, 0xf9, 0xec, 0x35, 0xe3, 0xf7, 0xf1, 0x11, 0x00,
  0x07, 0xfa, 0x36, 0x2f, 0xcc, 0xd6, 0xf1, 0x03, 0x1c, 0xf7, 0xde, 0xee,
  0x64, 0x2e, 0xe7, 0xdf, 0xde, 0x4e, 0xdf, 0x10, 0xdb, 0xe4, 0x36, 0xfd,
  0x42, 0xc3, 0xc4, 0x07, 0x45, 0x79, 0xbb, 0x14, 0x45, 0x2e, 0x63, 0x98,
  0xfa, 0x22, 0x15, 0x16, 0xf5, 0xc8, 0x12, 0x1e, 0xed, 0x1d, 0xf9, 0xe8,
  0xf9, 0x39, 0xd5, 0x12, 0x26, 0x3e, 0xc3, 0xef, 0xfc, 0x2d, 0xe5, 0x0a,
  0xff, 0x04, 0x7f, 0xd5, 0x32, 0x09, 0x9f, 0x00, 0xce, 0x10, 0x04, 0x02,
  0x1e, 0xee, 0x28, 0xf1, 0xa8, 0x1c, 0x30, 0x01, 0x0a, 0x18, 0x33, 0xf7,
  0x02, 0xe2, 0xef, 0x01, 0xee, 0xf4, 0xca, 0xed, 0x29, 0xd3, 0x07, 0x25,
  0x00, 0x00, 0x00, 0x00, 0x26, 0xfe, 0xff, 0xff, 0x04, 0x00, 0x00, 0x00,
  0x0e, 0x01, 0x00, 0x00, 0xfe, 0x7f, 0x06, 0xc0, 0x64, 0xcd, 0xec, 0x52,
  0x15, 0x26, 0x2a, 0xbd, 0x1b, 0x37, 0xd6, 0x1d, 0x2c, 0xd6, 0x19, 0x1f,
  0xc7, 0x30, 0xb5, 0xf4, 0x58, 0xd4, 0xc8, 0xd7, 0xcc, 0xc6, 0xea, 0x89,
  0xb8, 0xd8, 0xec, 0xf5, 0x64, 0x7c, 0x2d, 0x56, 0x4a, 0x7f, 0x49, 0x4d,
  0x56, 0xba, 0xac, 0x10, 0xab, 0xe9, 0x9d, 0x0a, 0x16, 0xd8, 0xd6, 0xe6,
  0x23, 0xb5, 0xc5, 0x17, 0x81, 0xd9, 0x1b, 0x2c, 0xdd, 0x0e, 0x13, 0x11,
  0x02, 0xd0, 0x0e, 0x0f, 0x2e, 0x10, 0xd2, 0x4c, 0xee, 0xfe, 0x25, 0x0a,
  0xf6, 0x90, 0x72, 0x06, 0x9e, 0x61, 0x42, 0xcf, 0x5b, 0xc3, 0x81, 0x3e,
  0x73, 0x86, 0x51, 0xfd, 0xb4, 0x49, 0x07, 0xcd, 0x21, 0x1d, 0xc8, 0x76,
  0xd1, 0x2a, 0x44, 0xd1, 0x97, 0x1c, 0xac, 0x11, 0x10, 0x32, 0x40, 0x09,
  0x0b, 0x81, 0xec, 0x82, 0x0f, 0x0e, 0x1f, 0x66, 0x31, 0x22, 0xca, 0xb7,
  0xce, 0xdb, 0x0d, 0x08, 0x71, 0x0f, 0x48, 0x58, 0x02, 0x33, 0x35, 0x52,
  0x51, 0x3f, 0x57, 0x16, 0x2b, 0x0d, 0xe5, 0x16, 0x0c, 0x01, 0x3e, 0x03,
  0x0e, 0x97, 0xc2, 0xf0, 0xa2, 0x81, 0xca, 0x88, 0xd1, 0xc0, 0x1e, 0xc5,
  0x0e, 0xec, 0x55, 0xc7, 0xab, 0x66, 0xdc, 0x59, 0x00, 0xcc, 0xe2, 0x0e,
  0xc3, 0xec, 0x4b, 0x15, 0x54, 0xee, 0x9b, 0xca, 0x4c, 0x16, 0x81, 0x55,
  0x17, 0x1a, 0x41, 0x6a, 0x81, 0x85, 0xa4, 0x3a, 0x48, 0x1e, 0x06, 0x42,
  0x3b, 0xf7, 0xbb, 0x97, 0x15, 0x30, 0x08, 0xe3, 0xef, 0x21, 0xf8, 0xaa,
  0xb8, 0x4a, 0xd3, 0x01, 0xe7, 0xc4, 0x1a, 0x0e, 0xf8, 0x43, 0x1e, 0x07,
  0x21, 0xdc, 0x81, 0xe0, 0x53, 0x2c, 0x4f, 0x21, 0xc4, 0xe8, 0x36, 0x07,
  0x0e, 0xe2, 0x9a, 0xf3, 0xfe, 0xe5, 0x09, 0x8c, 0xbd, 0xb9, 0x9b, 0x9a,
  0xec, 0x13, 0x15, 0x0e, 0x81, 0xa9, 0x0e, 0x20, 0x16, 0xc5, 0x5f, 0x49,
  0x22, 0x36, 0x1a, 0xd3, 0x6e, 0x05, 0x5d, 0x58, 0x10, 0x39, 0x00, 0x00,
  0x00, 0x00, 0x00, 0x00, 0x00, 0x00, 0x00, 0x00, 0x00, 0x00, 0x00, 0x00,
  0xf4, 0xff, 0xff, 0xff, 0x00, 0x00, 0x00, 0x00, 0x00, 0x00, 0x00, 0x00,
  0x04, 0x00, 0x04, 0x00, 0x04, 0x00, 0x00, 0x00, 0x00, 0x00, 0x00, 0x00,
  0x00, 0x00, 0x00, 0x00, 0x0f, 0x00, 0x00, 0x00, 0x4d, 0x4c, 0x49, 0x52,
  0x20, 0x43, 0x6f, 0x6e, 0x76, 0x65, 0x72, 0x74, 0x65, 0x64, 0x2e, 0x00,
  0x01, 0x00, 0x00, 0x00, 0x14, 0x00, 0x00, 0x00, 0x00, 0x00, 0x0e, 0x00,
  0x18, 0x00, 0x04, 0x00, 0x08, 0x00, 0x0c, 0x00, 0x10, 0x00, 0x14, 0x00,
  0x0e, 0x00, 0x00, 0x00, 0xc4, 0x02, 0x00, 0x00, 0xb8, 0x02, 0x00, 0x00,
  0xa8, 0x02, 0x00, 0x00, 0x14, 0x00, 0x00, 0x00, 0x04, 0x00, 0x00, 0x00,
  0x04, 0x00, 0x00, 0x00, 0x6d, 0x61, 0x69, 0x6e, 0x00, 0x00, 0x00, 0x00,
  0x0a, 0x00, 0x00, 0x00, 0x44, 0x02, 0x00, 0x00, 0x0c, 0x02, 0x00, 0x00,
  0xb0, 0x01, 0x00, 0x00, 0x60, 0x01, 0x00, 0x00, 0x28, 0x01, 0x00, 0x00,
  0xe8, 0x00, 0x00, 0x00, 0xc0, 0x00, 0x00, 0x00, 0x80, 0x00, 0x00, 0x00,
  0x40, 0x00, 0x00, 0x00, 0x04, 0x00, 0x00, 0x00, 0x7e, 0xfe, 0xff, 0xff,
  0x00, 0x00, 0x00, 0x09, 0x03, 0x00, 0x00, 0x00, 0x24, 0x00, 0x00, 0x00,
  0x18, 0x00, 0x00, 0x00, 0x0c, 0x00, 0x00, 0x00, 0x00, 0x00, 0x06, 0x00,
  0x08, 0x00, 0x04, 0x00, 0x06, 0x00, 0x00, 0x00, 0x00, 0x00, 0x80, 0x3f,
  0x01, 0x00, 0x00, 0x00, 0x17, 0x00, 0x00, 0x00, 0x01, 0x00, 0x00, 0x00,
  0x16, 0x00, 0x00, 0x00, 0x02, 0xff, 0xff, 0xff, 0x00, 0x00, 0x00, 0x01,
  0x24, 0x00, 0x00, 0x00, 0x18, 0x00, 0x00, 0x00, 0x04, 0x00, 0x00, 0x00,
  0x1a, 0xfe, 0xff, 0xff, 0x00, 0x00, 0x00, 0x01, 0x01, 0x00, 0x00, 0x00,
  0x01, 0x00, 0x00, 0x00, 0x01, 0x00, 0x00, 0x00, 0x16, 0x00, 0x00, 0x00,
  0x03, 0x00, 0x00, 0x00, 0x14, 0x00, 0x00, 0x00, 0x05, 0x00, 0x00, 0x00,
  0x0d, 0x00, 0x00, 0x00, 0x3e, 0xff, 0xff, 0xff, 0x00, 0x00, 0x00, 0x01,
  0x24, 0x00, 0x00, 0x00, 0x18, 0x00, 0x00, 0x00, 0x04, 0x00, 0x00, 0x00,
  0x56, 0xfe, 0xff, 0xff, 0x00, 0x00, 0x00, 0x01, 0x01, 0x00, 0x00, 0x00,
  0x01, 0x00, 0x00, 0x00, 0x01, 0x00, 0x00, 0x00, 0x15, 0x00, 0x00, 0x00,
  0x03, 0x00, 0x00, 0x00, 0x14, 0x00, 0x00, 0x00, 0x04, 0x00, 0x00, 0x00,
  0x0c, 0x00, 0x00, 0x00, 0xd2, 0xfe, 0xff, 0xff, 0x01, 0x00, 0x00, 0x00,
  0x10, 0x00, 0x00, 0x00, 0x04, 0x00, 0x00, 0x00, 0x01, 0x00, 0x00, 0x00,
  0x14, 0x00, 0x00, 0x00, 0x02, 0x00, 0x00, 0x00, 0x13, 0x00, 0x00, 0x00,
  0x0b, 0x00, 0x00, 0x00, 0x9e, 0xff, 0xff, 0xff, 0x00, 0x00, 0x00, 0x01,
  0x24, 0x00, 0x00, 0x00, 0x18, 0x00, 0x00, 0x00, 0x04, 0x00, 0x00, 0x00,
  0xb6, 0xfe, 0xff, 0xff, 0x00, 0x00, 0x00, 0x01, 0x01, 0x00, 0x00, 0x00,
  0x01, 0x00, 0x00, 0x00, 0x01, 0x00, 0x00, 0x00, 0x13, 0x00, 0x00, 0x00,
  0x03, 0x00, 0x00, 0x00, 0x12, 0x00, 0x00, 0x00, 0x03, 0x00, 0x00, 0x00,
  0x0a, 0x00, 0x00, 0x00, 0x32, 0xff, 0xff, 0xff, 0x01, 0x00, 0x00, 0x00,
  0x10, 0x00, 0x00, 0x00, 0x04, 0x00, 0x00, 0x00, 0x01, 0x00, 0x00, 0x00,
  0x12, 0x00, 0x00, 0x00, 0x02, 0x00, 0x00, 0x00, 0x11, 0x00, 0x00, 0x00,
  0x09, 0x00, 0x00, 0x00, 0x00, 0x00, 0x0e, 0x00, 0x14, 0x00, 0x00, 0x00,
  0x08, 0x00, 0x0c, 0x00, 0x07, 0x00, 0x10, 0x00, 0x0e, 0x00, 0x00, 0x00,
  0x00, 0x00, 0x00, 0x01, 0x24, 0x00, 0x00, 0x00, 0x18, 0x00, 0x00, 0x00,
  0x04, 0x00, 0x00, 0x00, 0x26, 0xff, 0xff, 0xff, 0x00, 0x00, 0x00, 0x01,
  0x01, 0x00, 0x00, 0x00, 0x01, 0x00, 0x00, 0x00, 0x01, 0x00, 0x00, 0x00,
  0x11, 0x00, 0x00, 0x00, 0x03, 0x00, 0x00, 0x00, 0x10, 0x00, 0x00, 0x00,
  0x02, 0x00, 0x00, 0x00, 0x08, 0x00, 0x00, 0x00, 0x00, 0x00, 0x0e, 0x00,
  0x1a, 0x00, 0x08, 0x00, 0x0c, 0x00, 0x10, 0x00, 0x07, 0x00, 0x14, 0x00,
  0x0e, 0x00, 0x00, 0x00, 0x00, 0x00, 0x00, 0x05, 0x02, 0x00, 0x00, 0x00,
  0x38, 0x00, 0x00, 0x00, 0x2c, 0x00, 0x00, 0x00, 0x14, 0x00, 0x00, 0x00,
  0x00, 0x00, 0x0e, 0x00, 0x14, 0x00, 0x00, 0x00, 0x04, 0x00, 0x08, 0x00,
  0x0c, 0x00, 0x10, 0x00, 0x0e, 0x00, 0x00, 0x00, 0x02, 0x00, 0x00, 0x00,
  0x02, 0x00, 0x00, 0x00, 0x02, 0x00, 0x00, 0x00, 0x02, 0x00, 0x00, 0x00,
  0x01, 0x00, 0x00, 0x00, 0x10, 0x00, 0x00, 0x00, 0x01, 0x00, 0x00, 0x00,
  0x0f, 0x00, 0x00, 0x00, 0x00, 0x00, 0x0a, 0x00, 0x10, 0x00, 0x04, 0x00,
  0x08, 0x00, 0x0c, 0x00, 0x0a, 0x00, 0x00, 0x00, 0x01, 0x00, 0x00, 0x00,
  0x10, 0x00, 0x00, 0x00, 0x04, 0x00, 0x00, 0x00, 0x01, 0x00, 0x00, 0x00,
  0x0f, 0x00, 0x00, 0x00, 0x02, 0x00, 0x00, 0x00, 0x0e, 0x00, 0x00, 0x00,
  0x07, 0x00, 0x00, 0x00, 0x00, 0x00, 0x0e, 0x00, 0x16, 0x00, 0x00, 0x00,
  0x08, 0x00, 0x0c, 0x00, 0x07, 0x00, 0x10, 0x00, 0x0e, 0x00, 0x00, 0x00,
  0x00, 0x00, 0x00, 0x01, 0x30, 0x00, 0x00, 0x00, 0x24, 0x00, 0x00, 0x00,
  0x10, 0x00, 0x00, 0x00, 0x00, 0x00, 0x0a, 0x00, 0x10, 0x00, 0x07, 0x00,
  0x08, 0x00, 0x0c, 0x00, 0x0a, 0x00, 0x00, 0x00, 0x00, 0x00, 0x00, 0x01,
  0x01, 0x00, 0x00, 0x00, 0x01, 0x00, 0x00, 0x00, 0x01, 0x00, 0x00, 0x00,
  0x0e, 0x00, 0x00, 0x00, 0x03, 0x00, 0x00, 0x00, 0x00, 0x00, 0x00, 0x00,
  0x01, 0x00, 0x00, 0x00, 0x06, 0x00, 0x00, 0x00, 0x02, 0x00, 0x00, 0x00,
  0x15, 0x00, 0x00, 0x00, 0x17, 0x00, 0x00, 0x00, 0x01, 0x00, 0x00, 0x00,
  0x00, 0x00, 0x00, 0x00, 0x18, 0x00, 0x00, 0x00, 0x2c, 0x18, 0x00, 0x00,
  0xdc, 0x16, 0x00, 0x00, 0x18, 0x15, 0x00, 0x00, 0x24, 0x12, 0x00, 0x00,
  0x60, 0x11, 0x00, 0x00, 0xc4, 0x10, 0x00, 0x00, 0xa4, 0x0f, 0x00, 0x00,
  0xcc, 0x0e, 0x00, 0x00, 0x70, 0x0d, 0x00, 0x00, 0x9c, 0x0c, 0x00, 0x00,
  0x80, 0x0a, 0x00, 0x00, 0xac, 0x09, 0x00, 0x00, 0xd8, 0x08, 0x00, 0x00,
  0x24, 0x08, 0x00, 0x00, 0x40, 0x07, 0x00, 0x00, 0x4c, 0x06, 0x00, 0x00,
  0xa8, 0x05, 0x00, 0x00, 0xc4, 0x04, 0x00, 0x00, 0xd0, 0x03, 0x00, 0x00,
  0xec, 0x02, 0x00, 0x00, 0xf8, 0x01, 0x00, 0x00, 0x64, 0x01, 0x00, 0x00,
  0x80, 0x00, 0x00, 0x00, 0x04, 0x00, 0x00, 0x00, 0x48, 0xe8, 0xff, 0xff,
  0x00, 0x00, 0x00, 0x09, 0x5c, 0x00, 0x00, 0x00, 0x18, 0x00, 0x00, 0x00,
  0x44, 0x00, 0x00, 0x00, 0x1c, 0x00, 0x00, 0x00, 0x04, 0x00, 0x00, 0x00,
  0x04, 0x00, 0x00, 0x00, 0xff, 0xff, 0xff, 0xff, 0x01, 0x00, 0x00, 0x00,
  0x01, 0x00, 0x00, 0x00, 0x02, 0x00, 0x00, 0x00, 0xbc, 0xf0, 0xff, 0xff,
  0x18, 0x00, 0x00, 0x00, 0x04, 0x00, 0x00, 0x00, 0x01, 0x00, 0x00, 0x00,
  0x80, 0xff, 0xff, 0xff, 0xff, 0xff, 0xff, 0xff, 0x00, 0x00, 0x00, 0x00,
  0x01, 0x00, 0x00, 0x00, 0x00, 0x00, 0x80, 0x3b, 0x0a, 0x00, 0x00, 0x00,
  0x49, 0x64, 0x65, 0x6e, 0x74, 0x69, 0x74, 0x79, 0x5f, 0x31, 0x00, 0x00,
  0x04, 0x00, 0x00, 0x00, 0x01, 0x00, 0x00, 0x00, 0x01, 0x00, 0x00, 0x00,
  0x01, 0x00, 0x00, 0x00, 0x02, 0x00, 0x00, 0x00, 0xc0, 0xe8, 0xff, 0xff,
  0x00, 0x00, 0x00, 0x09, 0xc4, 0x00, 0x00, 0x00, 0x17, 0x00, 0x00, 0x00,
  0x58, 0x00, 0x00, 0x00, 0x1c, 0x00, 0x00, 0x00, 0x04, 0x00, 0x00, 0x00,
  0x04, 0x00, 0x00, 0x00, 0xff, 0xff, 0xff, 0xff, 0x01, 0x00, 0x00, 0x00,
  0x01, 0x00, 0x00, 0x00, 0x02, 0x00, 0x00, 0x00, 0xac, 0xe8, 0xff, 0xff,
  0x2c, 0x00, 0x00, 0x00, 0x20, 0x00, 0x00, 0x00, 0x14, 0x00, 0x00, 0x00,
  0x04, 0x00, 0x00, 0x00, 0x01, 0x00, 0x00, 0x00, 0x07, 0x00, 0x00, 0x00,
  0x00, 0x00, 0x00, 0x00, 0x01, 0x00, 0x00, 0x00, 0x72, 0x6c, 0xbd, 0x3d,
  0x01, 0x00, 0x00, 0x00, 0x93, 0x7d, 0x31, 0x41, 0x01, 0x00, 0x00, 0x00,
  0x7a, 0xe0, 0x47, 0xc1, 0x5f, 0x00, 0x00, 0x00, 0x50, 0x4e, 0x65, 0x74,
  0x2f, 0x50, 0x4e, 0x65, 0x74, 0x5f, 0x43, 0x4f, 0x4e, 0x56, 0x34, 0x2f,
  0x42, 0x69, 0x61, 0x73, 0x41, 0x64, 0x64, 0x3b, 0x50, 0x4e, 0x65, 0x74,
  0x2f, 0x50, 0x4e, 0x65, 0x74, 0x5f, 0x43, 0x4f, 0x4e, 0x56, 0x34, 0x2f,
  0x43, 0x6f, 0x6e, 0x76, 0x32, 0x44, 0x3b, 0x50, 0x4e, 0x65, 0x74, 0x2f,
  0x50, 0x4e, 0x65, 0x74, 0x5f, 0x43, 0x4f, 0x4e, 0x56, 0x34, 0x2f, 0x42,
  0x69, 0x61, 0x73, 0x41, 0x64, 0x64, 0x2f, 0x52, 0x65, 0x61, 0x64, 0x56,
  0x61, 0x72, 0x69, 0x61, 0x62, 0x6c, 0x65, 0x4f, 0x70, 0x2f, 0x72, 0x65,
  0x73, 0x6f, 0x75, 0x72, 0x63, 0x65, 0x31, 0x00, 0x04, 0x00, 0x00, 0x00,
  0x01, 0x00, 0x00, 0x00, 0x01, 0x00, 0x00, 0x00, 0x01, 0x00, 0x00, 0x00,
  0x02, 0x00, 0x00, 0x00, 0xa0, 0xe9, 0xff, 0xff, 0x00, 0x00, 0x00, 0x09,
  0x74, 0x00, 0x00, 0x00, 0x16, 0x00, 0x00, 0x00, 0x5c, 0x00, 0x00, 0x00,
  0x1c, 0x00, 0x00, 0x00, 0x04, 0x00, 0x00, 0x00, 0x04, 0x00, 0x00, 0x00,
  0xff, 0xff, 0xff, 0xff, 0x01, 0x00, 0x00, 0x00, 0x01, 0x00, 0x00, 0x00,
  0x04, 0x00, 0x00, 0x00, 0x8c, 0xe9, 0xff, 0xff, 0x30, 0x00, 0x00, 0x00,
  0x24, 0x00, 0x00, 0x00, 0x18, 0x00, 0x00, 0x00, 0x04, 0x00, 0x00, 0x00,
  0x01, 0x00, 0x00, 0x00, 0xfa, 0xff, 0xff, 0xff, 0xff, 0xff, 0xff, 0xff,
  0x00, 0x00, 0x00, 0x00, 0x01, 0x00, 0x00, 0x00, 0x39, 0x11, 0x4c, 0x3b,
  0x01, 0x00, 0x00, 0x00, 0xde, 0x83, 0xd3, 0x3e, 0x01, 0x00, 0x00, 0x00,
  0x72, 0x06, 0xc3, 0xbe, 0x08, 0x00, 0x00, 0x00, 0x49, 0x64, 0x65, 0x6e,
  0x74, 0x69, 0x74, 0x79, 0x00, 0x00, 0x00, 0x00, 0x04, 0x00, 0x00, 0x00,
  0x01, 0x00, 0x00, 0x00, 0x01, 0x00, 0x00, 0x00, 0x01, 0x00, 0x00, 0x00,
  0x04, 0x00, 0x00, 0x00, 0x30, 0xea, 0xff, 0xff, 0x00, 0x00, 0x00, 0x09,
  0xd4, 0x00, 0x00, 0x00, 0x15, 0x00, 0x00, 0x00, 0x5c, 0x00, 0x00, 0x00,
  0x1c, 0x00, 0x00, 0x00, 0x04, 0x00, 0x00, 0x00, 0x04, 0x00, 0x00, 0x00,
  0xff, 0xff, 0xff, 0xff, 0x01, 0x00, 0x00, 0x00, 0x01, 0x00, 0x00, 0x00,
  0x20, 0x00, 0x00, 0x00, 0x1c, 0xea, 0xff, 0xff, 0x30, 0x00, 0x00, 0x00,
  0x24, 0x00, 0x00, 0x00, 0x18, 0x00, 0x00, 0x00, 0x04, 0x00, 0x00, 0x00,
  0x01, 0x00, 0x00, 0x00, 0x13, 0x00, 0x00, 0x00, 0x00, 0x00, 0x00, 0x00,
  0x00, 0x00, 0x00, 0x00, 0x01, 0x00, 0x00, 0x00, 0x37, 0xa6, 0x01, 0x3e,
  0x01, 0x00, 0x00, 0x00, 0xc0, 0x5f, 0x5a, 0x41, 0x01, 0x00, 0x00, 0x00,
  0x42, 0x19, 0x95, 0xc1, 0x6a, 0x00, 0x00, 0x00, 0x50, 0x4e, 0x65, 0x74,
  0x2f, 0x50, 0x4e, 0x65, 0x74, 0x5f, 0x52, 0x45, 0x4c, 0x55, 0x33, 0x2f,
  0x61, 0x64, 0x64, 0x3b, 0x50, 0x4e, 0x65, 0x74, 0x2f, 0x50, 0x4e, 0x65,
  0x74, 0x5f, 0x52, 0x45, 0x4c, 0x55, 0x33, 0x2f, 0x52, 0x65, 0x6c, 0x75,
  0x3b, 0x50, 0x4e, 0x65, 0x74, 0x2f, 0x50, 0x4e, 0x65, 0x74, 0x5f, 0x52,
  0x45, 0x4c, 0x55, 0x33, 0x2f, 0x4e, 0x65, 0x67, 0x5f, 0x31, 0x3b, 0x50,
  0x4e, 0x65, 0x74, 0x2f, 0x50, 0x4e, 0x65, 0x74, 0x5f, 0x52, 0x45, 0x4c,
  0x55, 0x33, 0x2f, 0x52, 0x65, 0x6c, 0x75, 0x5f, 0x31, 0x3b, 0x50, 0x4e,
  0x65, 0x74, 0x2f, 0x50, 0x4e, 0x65, 0x74, 0x5f, 0x52, 0x45, 0x4c, 0x55,
  0x33, 0x2f, 0x6d, 0x75, 0x6c, 0x31, 0x00, 0x00, 0x04, 0x00, 0x00, 0x00,
  0x01, 0x00, 0x00, 0x00, 0x01, 0x00, 0x00, 0x00, 0x01, 0x00, 0x00, 0x00,
  0x20, 0x00, 0x00, 0x00, 0x20, 0xeb, 0xff, 0xff, 0x00, 0x00, 0x00, 0x09,
  0xc4, 0x00, 0x00, 0x00, 0x14, 0x00, 0x00, 0x00, 0x58, 0x00, 0x00, 0x00,
  0x1c, 0x00, 0x00, 0x00, 0x04, 0x00, 0x00, 0x00, 0x04, 0x00, 0x00, 0x00,
  0xff, 0xff, 0xff, 0xff, 0x01, 0x00, 0x00, 0x00, 0x01, 0x00, 0x00, 0x00,
  0x20, 0x00, 0x00, 0x00, 0x0c, 0xeb, 0xff, 0xff, 0x2c, 0x00, 0x00, 0x00,
  0x20, 0x00, 0x00, 0x00, 0x14, 0x00, 0x00, 0x00, 0x04, 0x00, 0x00, 0x00,
  0x01, 0x00, 0x00, 0x00, 0xf3, 0xff, 0xff, 0xff, 0xff, 0xff, 0xff, 0xff,
  0x01, 0x00, 0x00, 0x00, 0xdc, 0x16, 0xc7, 0x3d, 0x01, 0x00, 0x00, 0x00,
  0xc0, 0x5f, 0x5a, 0x41, 0x01, 0x00, 0x00, 0x00, 0xca, 0x3f, 0x32, 0xc1,
  0x5f, 0x00, 0x00, 0x00, 0x50, 0x4e, 0x65, 0x74, 0x2f, 0x50, 0x4e, 0x65,
  0x74, 0x5f, 0x43, 0x4f, 0x4e, 0x56, 0x33, 0x2f, 0x42, 0x69, 0x61, 0x73,
  0x41, 0x64, 0x64, 0x3b, 0x50, 0x4e, 0x65, 0x74, 0x2f, 0x50, 0x4e, 0x65,
  0x74, 0x5f, 0x43, 0x4f, 0x4e, 0x56, 0x33, 0x2f, 0x43, 0x6f, 0x6e, 0x76,
  0x32, 0x44, 0x3b, 0x50, 0x4e, 0x65, 0x74, 0x2f, 0x50, 0x4e, 0x65, 0x74,
  0x5f, 0x43, 0x4f, 0x4e, 0x56, 0x33, 0x2f, 0x42, 0x69, 0x61, 0x73, 0x41,
  0x64, 0x64, 0x2f, 0x52, 0x65, 0x61, 0x64, 0x56, 0x61, 0x72, 0x69, 0x61,
  0x62, 0x6c, 0x65, 0x4f, 0x70, 0x2f, 0x72, 0x65, 0x73, 0x6f, 0x75, 0x72,
  0x63, 0x65, 0x31, 0x00, 0x04, 0x00, 0x00, 0x00, 0x01, 0x00, 0x00, 0x00,
  0x01, 0x00, 0x00, 0x00, 0x01, 0x00, 0x00, 0x00, 0x20, 0x00, 0x00, 0x00,
  0x00, 0xec, 0xff, 0xff, 0x00, 0x00, 0x00, 0x09, 0xd4, 0x00, 0x00, 0x00,
  0x13, 0x00, 0x00, 0x00, 0x5c, 0x00, 0x00, 0x00, 0x1c, 0x00, 0x00, 0x00,
  0x04, 0x00, 0x00, 0x00, 0x04, 0x00, 0x00, 0x00, 0xff, 0xff, 0xff, 0xff,
  0x03, 0x00, 0x00, 0x00, 0x03, 0x00, 0x00, 0x00, 0x10, 0x00, 0x00, 0x00,
  0xec, 0xeb, 0xff, 0xff, 0x30, 0x00, 0x00, 0x00, 0x24, 0x00, 0x00, 0x00,
  0x18, 0x00, 0x00, 0x00, 0x04, 0x00, 0x00, 0x00, 0x01, 0x00, 0x00, 0x00,
  0xf9, 0xff, 0xff, 0xff, 0xff, 0xff, 0xff, 0xff, 0x00, 0x00, 0x00, 0x00,
  0x01, 0x00, 0x00, 0x00, 0x73, 0xac, 0x2e, 0x3d, 0x01, 0x00, 0x00, 0x00,
  0x63, 0xc8, 0xb6, 0x40, 0x01, 0x00, 0x00, 0x00, 0x2b, 0x33, 0xa5, 0xc0,
  0x6a, 0x00, 0x00, 0x00, 0x50, 0x4e, 0x65, 0x74, 0x2f, 0x50, 0x4e, 0x65,
  0x74, 0x5f, 0x52, 0x45, 0x4c, 0x55, 0x32, 0x2f, 0x61, 0x64, 0x64, 0x3b,
  0x50, 0x4e, 0x65, 0x74, 0x2f, 0x50, 0x4e, 0x65, 0x74, 0x5f, 0x52, 0x45,
  0x4c, 0x55, 0x32, 0x2f, 0x52, 0x65, 0x6c, 0x75, 0x3b, 0x50, 0x4e, 0x65,
  0x74, 0x2f, 0x50, 0x4e, 0x65, 0x74, 0x5f, 0x52, 0x45, 0x4c, 0x55, 0x32,
  0x2f, 0x4e, 0x65, 0x67, 0x5f, 0x31, 0x3b, 0x50, 0x4e, 0x65, 0x74, 0x2f,
  0x50, 0x4e, 0x65, 0x74, 0x5f, 0x52, 0x45, 0x4c, 0x55, 0x32, 0x2f, 0x52,
  0x65, 0x6c, 0x75, 0x5f, 0x31, 0x3b, 0x50, 0x4e, 0x65, 0x74, 0x2f, 0x50,
  0x4e, 0x65, 0x74, 0x5f, 0x52, 0x45, 0x4c, 0x55, 0x32, 0x2f, 0x6d, 0x75,
  0x6c, 0x31, 0x00, 0x00, 0x04, 0x00, 0x00, 0x00, 0x01, 0x00, 0x00, 0x00,
  0x03, 0x00, 0x00, 0x00, 0x03, 0x00, 0x00, 0x00, 0x10, 0x00, 0x00, 0x00,
  0xf0, 0xec, 0xff, 0xff, 0x00, 0x00, 0x00, 0x09, 0xc4, 0x00, 0x00, 0x00,
  0x12, 0x00, 0x00, 0x00, 0x58, 0x00, 0x00, 0x00, 0x1c, 0x00, 0x00, 0x00,
  0x04, 0x00, 0x00, 0x00, 0x04, 0x00, 0x00, 0x00, 0xff, 0xff, 0xff, 0xff,
  0x03, 0x00, 0x00, 0x00, 0x03, 0x00, 0x00, 0x00, 0x10, 0x00, 0x00, 0x00,
  0xdc, 0xec, 0xff, 0xff, 0x2c, 0x00, 0x00, 0x00, 0x20, 0x00, 0x00, 0x00,
  0x14, 0x00, 0x00, 0x00, 0x04, 0x00, 0x00, 0x00, 0x01, 0x00, 0x00, 0x00,
  0x29, 0x00, 0x00, 0x00, 0x00, 0x00, 0x00, 0x00, 0x01, 0x00, 0x00, 0x00,
  0xc5, 0x04, 0x88, 0x3d, 0x01, 0x00, 0x00, 0x00, 0x63, 0xc8, 0xb6, 0x40,
  0x01, 0x00, 0x00, 0x00, 0x4f, 0x95, 0x33, 0xc1, 0x5f, 0x00, 0x00, 0x00,
  0x50, 0x4e, 0x65, 0x74, 0x2f, 0x50, 0x4e, 0x65, 0x74, 0x5f, 0x43, 0x4f,
  0x4e, 0x56, 0x32, 0x2f, 0x42, 0x69, 0x61, 0x73, 0x41, 0x64, 0x64, 0x3b,
  0x50, 0x4e, 0x65, 0x74, 0x2f, 0x50, 0x4e, 0x65, 0x74, 0x5f, 0x43, 0x4f,
  0x4e, 0x56, 0x32, 0x2f, 0x43, 0x6f, 0x6e, 0x76, 0x32, 0x44, 0x3b, 0x50,
  0x4e, 0x65, 0x74, 0x2f, 0x50, 0x4e, 0x65, 0x74, 0x5f, 0x43, 0x4f, 0x4e,
  0x56, 0x32, 0x2f, 0x42, 0x69, 0x61, 0x73, 0x41, 0x64, 0x64, 0x2f, 0x52,
  0x65, 0x61, 0x64, 0x56, 0x61, 0x72, 0x69, 0x61, 0x62, 0x6c, 0x65, 0x4f,
  0x70, 0x2f, 0x72, 0x65, 0x73, 0x6f, 0x75, 0x72, 0x63, 0x65, 0x31, 0x00,
  0x04, 0x00, 0x00, 0x00, 0x01, 0x00, 0x00, 0x00, 0x03, 0x00, 0x00, 0x00,
  0x03, 0x00, 0x00, 0x00, 0x10, 0x00, 0x00, 0x00, 0xd0, 0xed, 0xff, 0xff,
  0x00, 0x00, 0x00, 0x09, 0x84, 0x00, 0x00, 0x00, 0x11, 0x00, 0x00, 0x00,
  0x5c, 0x00, 0x00, 0x00, 0x1c, 0x00, 0x00, 0x00, 0x04, 0x00, 0x00, 0x00,
  0x04, 0x00, 0x00, 0x00, 0xff, 0xff, 0xff, 0xff, 0x05, 0x00, 0x00, 0x00,
  0x05, 0x00, 0x00, 0x00, 0x0a, 0x00, 0x00, 0x00, 0xbc, 0xed, 0xff, 0xff,
  0x30, 0x00, 0x00, 0x00, 0x24, 0x00, 0x00, 0x00, 0x18, 0x00, 0x00, 0x00,
  0x04, 0x00, 0x00, 0x00, 0x01, 0x00, 0x00, 0x00, 0x46, 0x00, 0x00, 0x00,
  0x00, 0x00, 0x00, 0x00, 0x00, 0x00, 0x00, 0x00, 0x01, 0x00, 0x00, 0x00,
  0x44, 0x75, 0x57, 0x3d, 0x01, 0x00, 0x00, 0x00, 0x51, 0x6b, 0x41, 0x40,
  0x01, 0x00, 0x00, 0x00, 0xfb, 0x42, 0x26, 0xc1, 0x1a, 0x00, 0x00, 0x00,
  0x50, 0x4e, 0x65, 0x74, 0x2f, 0x50, 0x4e, 0x65, 0x74, 0x5f, 0x4d, 0x41,
  0x58, 0x50, 0x4f, 0x4f, 0x4c, 0x31, 0x2f, 0x4d, 0x61, 0x78, 0x50, 0x6f,
  0x6f, 0x6c, 0x00, 0x00, 0x04, 0x00, 0x00, 0x00, 0x01, 0x00, 0x00, 0x00,
  0x05, 0x00, 0x00, 0x00, 0x05, 0x00, 0x00, 0x00, 0x0a, 0x00, 0x00, 0x00,
  0x70, 0xee, 0xff, 0xff, 0x00, 0x00, 0x00, 0x09, 0xd4, 0x00, 0x00, 0x00,
  0x10, 0x00, 0x00, 0x00, 0x5c, 0x00, 0x00, 0x00, 0x1c, 0x00, 0x00, 0x00,
  0x04, 0x00, 0x00, 0x00, 0x04, 0x00, 0x00, 0x00, 0xff, 0xff, 0xff, 0xff,
  0x0a, 0x00, 0x00, 0x00, 0x0a, 0x00, 0x00, 0x00, 0x0a, 0x00, 0x00, 0x00,
  0x5c, 0xee, 0xff, 0xff, 0x30, 0x00, 0x00, 0x00, 0x24, 0x00, 0x00, 0x00,
  0x18, 0x00, 0x00, 0x00, 0x04, 0x00, 0x00, 0x00, 0x01, 0x00, 0x00, 0x00,
  0x46, 0x00, 0x00, 0x00, 0x00, 0x00, 0x00, 0x00, 0x00, 0x00, 0x00, 0x00,
  0x01, 0x00, 0x00, 0x00, 0x44, 0x75, 0x57, 0x3d, 0x01, 0x00, 0x00, 0x00,
  0x51, 0x6b, 0x41, 0x40, 0x01, 0x00, 0x00, 0x00, 0xfb, 0x42, 0x26, 0xc1,
  0x6a, 0x00, 0x00, 0x00, 0x50, 0x4e, 0x65, 0x74, 0x2f, 0x50, 0x4e, 0x65,
  0x74, 0x5f, 0x52, 0x45, 0x4c, 0x55, 0x31, 0x2f, 0x61, 0x64, 0x64, 0x3b,
  0x50, 0x4e, 0x65, 0x74, 0x2f, 0x50, 0x4e, 0x65, 0x74, 0x5f, 0x52, 0x45,
  0x4c, 0x55, 0x31, 0x2f, 0x52, 0x65, 0x6c, 0x75, 0x3b, 0x50, 0x4e, 0x65,
  0x74, 0x2f, 0x50, 0x4e, 0x65, 0x74, 0x5f, 0x52, 0x45, 0x4c, 0x55, 0x31,
  0x2f, 0x4e, 0x65, 0x67, 0x5f, 0x31, 0x3b, 0x50, 0x4e, 0x65, 0x74, 0x2f,
  0x50, 0x4e, 0x65, 0x74, 0x5f, 0x52, 0x45, 0x4c, 0x55, 0x31, 0x2f, 0x52,
  0x65, 0x6c, 0x75, 0x5f, 0x31, 0x3b, 0x50, 0x4e, 0x65, 0x74, 0x2f, 0x50,
  0x4e, 0x65, 0x74, 0x5f, 0x52, 0x45, 0x4c, 0x55, 0x31, 0x2f, 0x6d, 0x75,
  0x6c, 0x31, 0x00, 0x00, 0x04, 0x00, 0x00, 0x00, 0x01, 0x00, 0x00, 0x00,
  0x0a, 0x00, 0x00, 0x00, 0x0a, 0x00, 0x00, 0x00, 0x0a, 0x00, 0x00, 0x00,
  0x60, 0xef, 0xff, 0xff, 0x00, 0x00, 0x00, 0x09, 0xc4, 0x00, 0x00, 0x00,
  0x0f, 0x00, 0x00, 0x00, 0x58, 0x00, 0x00, 0x00, 0x1c, 0x00, 0x00, 0x00,
  0x04, 0x00, 0x00, 0x00, 0x04, 0x00, 0x00, 0x00, 0xff, 0xff, 0xff, 0xff,
  0x0a, 0x00, 0x00, 0x00, 0x0a, 0x00, 0x00, 0x00, 0x0a, 0x00, 0x00, 0x00,
  0x4c, 0xef, 0xff, 0xff, 0x2c, 0x00, 0x00, 0x00, 0x20, 0x00, 0x00, 0x00,
  0x14, 0x00, 0x00, 0x00, 0x04, 0x00, 0x00, 0x00, 0x01, 0x00, 0x00, 0x00,
  0x01, 0x00, 0x00, 0x00, 0x00, 0x00, 0x00, 0x00, 0x01, 0x00, 0x00, 0x00,
  0x0c, 0x30, 0xc5, 0x3c, 0x01, 0x00, 0x00, 0x00, 0x51, 0x6b, 0x41, 0x40,
  0x01, 0x00, 0x00, 0x00, 0x68, 0x6a, 0x47, 0xc0, 0x5f, 0x00, 0x00, 0x00,
  0x50, 0x4e, 0x65, 0x74, 0x2f, 0x50, 0x4e, 0x65, 0x74, 0x5f, 0x43, 0x4f,
  0x4e, 0x56, 0x31, 0x2f, 0x42, 0x69, 0x61, 0x73, 0x41, 0x64, 0x64, 0x3b,
  0x50, 0x4e, 0x65, 0x74, 0x2f, 0x50, 0x4e, 0x65, 0x74, 0x5f, 0x43, 0x4f,
  0x4e, 0x56, 0x31, 0x2f, 0x43, 0x6f, 0x6e, 0x76, 0x32, 0x44, 0x3b, 0x50,
  0x4e, 0x65, 0x74, 0x2f, 0x50, 0x4e, 0x65, 0x74, 0x5f, 0x43, 0x4f, 0x4e,
  0x56, 0x31, 0x2f, 0x42, 0x69, 0x61, 0x73, 0x41, 0x64, 0x64, 0x2f, 0x52,
  0x65, 0x61, 0x64, 0x56, 0x61, 0x72, 0x69, 0x61, 0x62, 0x6c, 0x65, 0x4f,
  0x70, 0x2f, 0x72, 0x65, 0x73, 0x6f, 0x75, 0x72, 0x63, 0x65, 0x31, 0x00,
  0x04, 0x00, 0x00, 0x00, 0x01, 0x00, 0x00, 0x00, 0x0a, 0x00, 0x00, 0x00,
  0x0a, 0x00, 0x00, 0x00, 0x0a, 0x00, 0x00, 0x00, 0x86, 0xf1, 0xff, 0xff,
  0x00, 0x00, 0x00, 0x02, 0xa0, 0x00, 0x00, 0x00, 0x0e, 0x00, 0x00, 0x00,
  0x34, 0x00, 0x00, 0x00, 0x04, 0x00, 0x00, 0x00, 0x9c, 0xf8, 0xff, 0xff,
  0x1c, 0x00, 0x00, 0x00, 0x04, 0x00, 0x00, 0x00, 0x02, 0x00, 0x00, 0x00,
  0x00, 0x00, 0x00, 0x00, 0x00, 0x00, 0x00, 0x00, 0x00, 0x00, 0x00, 0x00,
  0x00, 0x00, 0x00, 0x00, 0x02, 0x00, 0x00, 0x00, 0x34, 0xba, 0x52, 0x3a,
  0xa9, 0xf0, 0x2a, 0x3a, 0x5e, 0x00, 0x00, 0x00, 0x50, 0x4e, 0x65, 0x74,
  0x2f, 0x50, 0x4e, 0x65, 0x74, 0x5f, 0x43, 0x4f, 0x4e, 0x56, 0x34, 0x2f,
  0x42, 0x69, 0x61, 0x73, 0x41, 0x64, 0x64, 0x3b, 0x50, 0x4e, 0x65, 0x74,
  0x2f, 0x50, 0x4e, 0x65, 0x74, 0x5f, 0x43, 0x4f, 0x4e, 0x56, 0x34, 0x2f,
  0x43, 0x6f, 0x6e, 0x76, 0x32, 0x44, 0x3b, 0x50, 0x4e, 0x65, 0x74, 0x2f,
  0x50, 0x4e, 0x65, 0x74, 0x5f, 0x43, 0x4f, 0x4e, 0x56, 0x34, 0x2f, 0x42,
  0x69, 0x61, 0x73, 0x41, 0x64, 0x64, 0x2f, 0x52, 0x65, 0x61, 0x64, 0x56,
  0x61, 0x72, 0x69, 0x61, 0x62, 0x6c, 0x65, 0x4f, 0x70, 0x2f, 0x72, 0x65,
  0x73, 0x6f, 0x75, 0x72, 0x63, 0x65, 0x00, 0x00, 0x01, 0x00, 0x00, 0x00,
  0x02, 0x00, 0x00, 0x00, 0x36, 0xf2, 0xff, 0xff, 0x00, 0x00, 0x00, 0x02,
  0xc0, 0x00, 0x00, 0x00, 0x0d, 0x00, 0x00, 0x00, 0x4c, 0x00, 0x00, 0x00,
  0x04, 0x00, 0x00, 0x00, 0x4c, 0xf9, 0xff, 0xff, 0x2c, 0x00, 0x00, 0x00,
  0x04, 0x00, 0x00, 0x00, 0x04, 0x00, 0x00, 0x00, 0x00, 0x00, 0x00, 0x00,
  0x00, 0x00, 0x00, 0x00, 0x00, 0x00, 0x00, 0x00, 0x00, 0x00, 0x00, 0x00,
  0x00, 0x00, 0x00, 0x00, 0x00, 0x00, 0x00, 0x00, 0x00, 0x00, 0x00, 0x00,
  0x00, 0x00, 0x00, 0x00, 0x04, 0x00, 0x00, 0x00, 0xfd, 0x2b, 0x4f, 0x39,
  0xe5, 0x70, 0x9f, 0x39, 0x3f, 0xf2, 0x30, 0x3a, 0x9b, 0xc0, 0xbc, 0x39,
  0x67, 0x00, 0x00, 0x00, 0x50, 0x4e, 0x65, 0x74, 0x2f, 0x42, 0x42, 0x5f,
  0x52, 0x45, 0x47, 0x52, 0x45, 0x53, 0x53, 0x49, 0x4f, 0x4e, 0x2f, 0x42,
  0x69, 0x61, 0x73, 0x41, 0x64, 0x64, 0x3b, 0x50, 0x4e, 0x65, 0x74, 0x2f,
  0x42, 0x42, 0x5f, 0x52, 0x45, 0x47, 0x52, 0x45, 0x53, 0x53, 0x49, 0x4f,
  0x4e, 0x2f, 0x43, 0x6f, 0x6e, 0x76, 0x32, 0x44, 0x3b, 0x50, 0x4e, 0x65,
  0x74, 0x2f, 0x42, 0x42, 0x5f, 0x52, 0x45, 0x47, 0x52, 0x45, 0x53, 0x53,
  0x49, 0x4f, 0x4e, 0x2f, 0x42, 0x69, 0x61, 0x73, 0x41, 0x64, 0x64, 0x2f,
  0x52, 0x65, 0x61, 0x64, 0x56, 0x61, 0x72, 0x69, 0x61, 0x62, 0x6c, 0x65,
  0x4f, 0x70, 0x2f, 0x72, 0x65, 0x73, 0x6f, 0x75, 0x72, 0x63, 0x65, 0x00,
  0x01, 0x00, 0x00, 0x00, 0x04, 0x00, 0x00, 0x00, 0x06, 0xf3, 0xff, 0xff,
  0x00, 0x00, 0x00, 0x09, 0xb8, 0x00, 0x00, 0x00, 0x0c, 0x00, 0x00, 0x00,
  0x40, 0x00, 0x00, 0x00, 0x04, 0x00, 0x00, 0x00, 0x94, 0xf1, 0xff, 0xff,
  0x2c, 0x00, 0x00, 0x00, 0x20, 0x00, 0x00, 0x00, 0x14, 0x00, 0x00, 0x00,
  0x04, 0x00, 0x00, 0x00, 0x01, 0x00, 0x00, 0x00, 0x00, 0x00, 0x00, 0x00,
  0x00, 0x00, 0x00, 0x00, 0x01, 0x00, 0x00, 0x00, 0x76, 0x83, 0x0f, 0x3d,
  0x01, 0x00, 0x00, 0x00, 0x6f, 0x64, 0x8e, 0x40, 0x01, 0x00, 0x00, 0x00,
  0xb0, 0x8e, 0xbc, 0xbf, 0x69, 0x00, 0x00, 0x00, 0x50, 0x4e, 0x65, 0x74,
  0x2f, 0x50, 0x4e, 0x65, 0x74, 0x5f, 0x52, 0x45, 0x4c, 0x55, 0x33, 0x2f,
  0x61, 0x64, 0x64, 0x3b, 0x50, 0x4e, 0x65, 0x74, 0x2f, 0x50, 0x4e, 0x65,
  0x74, 0x5f, 0x52, 0x45, 0x4c, 0x55, 0x33, 0x2f, 0x52, 0x65, 0x6c, 0x75,
  0x3b, 0x50, 0x4e, 0x65, 0x74, 0x2f, 0x50, 0x4e, 0x65, 0x74, 0x5f, 0x52,
  0x45, 0x4c, 0x55, 0x33, 0x2f, 0x4e, 0x65, 0x67, 0x5f, 0x31, 0x3b, 0x50,
  0x4e, 0x65, 0x74, 0x2f, 0x50, 0x4e, 0x65, 0x74, 0x5f, 0x52, 0x45, 0x4c,
  0x55, 0x33, 0x2f, 0x52, 0x65, 0x6c, 0x75, 0x5f, 0x31, 0x3b, 0x50, 0x4e,
  0x65, 0x74, 0x2f, 0x50, 0x4e, 0x65, 0x74, 0x5f, 0x52, 0x45, 0x4c, 0x55,
  0x33, 0x2f, 0x6d, 0x75, 0x6c, 0x00, 0x00, 0x00, 0x03, 0x00, 0x00, 0x00,
  0x01, 0x00, 0x00, 0x00, 0x01, 0x00, 0x00, 0x00, 0x20, 0x00, 0x00, 0x00,
  0xd6, 0xf3, 0xff, 0xff, 0x00, 0x00, 0x00, 0x02, 0x08, 0x02, 0x00, 0x00,
  0x0b, 0x00, 0x00, 0x00, 0x9c, 0x01, 0x00, 0x00, 0x04, 0x00, 0x00, 0x00,
  0xec, 0xfa, 0xff, 0xff, 0x0c, 0x01, 0x00, 0x00, 0x04, 0x00, 0x00, 0x00,
  0x20, 0x00, 0x00, 0x00, 0x00, 0x00, 0x00, 0x00, 0x00, 0x00, 0x00, 0x00,
  0x00, 0x00, 0x00, 0x00, 0x00, 0x00, 0x00, 0x00, 0x00, 0x00, 0x00, 0x00,
  0x00, 0x00, 0x00, 0x00, 0x00, 0x00, 0x00, 0x00, 0x00, 0x00, 0x00, 0x00,
  0x00, 0x00, 0x00, 0x00, 0x00, 0x00, 0x00, 0x00, 0x00, 0x00, 0x00, 0x00,
  0x00, 0x00, 0x00, 0x00, 0x00, 0x00, 0x00, 0x00, 0x00, 0x00, 0x00, 0x00,
  0x00, 0x00, 0x00, 0x00, 0x00, 0x00, 0x00, 0x00, 0x00, 0x00, 0x00, 0x00,
  0x00, 0x00, 0x00, 0x00, 0x00, 0x00, 0x00, 0x00, 0x00, 0x00, 0x00, 0x00,
  0x00, 0x00, 0x00, 0x00, 0x00, 0x00, 0x00, 0x00, 0x00, 0x00, 0x00, 0x00,
  0x00, 0x00, 0x00, 0x00, 0x00, 0x00, 0x00, 0x00, 0x00, 0x00, 0x00, 0x00,
  0x00, 0x00, 0x00, 0x00, 0x00, 0x00, 0x00, 0x00, 0x00, 0x00, 0x00, 0x00,
  0x00, 0x00, 0x00, 0x00, 0x00, 0x00, 0x00, 0x00, 0x00, 0x00, 0x00, 0x00,
  0x00, 0x00, 0x00, 0x00, 0x00, 0x00, 0x00, 0x00, 0x00, 0x00, 0x00, 0x00,
  0x00, 0x00, 0x00, 0x00, 0x00, 0x00, 0x00, 0x00, 0x00, 0x00, 0x00, 0x00,
  0x00, 0x00, 0x00, 0x00, 0x00, 0x00, 0x00, 0x00, 0x00, 0x00, 0x00, 0x00,
  0x00, 0x00, 0x00, 0x00, 0x00, 0x00, 0x00, 0x00, 0x00, 0x00, 0x00, 0x00,
  0x00, 0x00, 0x00, 0x00, 0x00, 0x00, 0x00, 0x00, 0x00, 0x00, 0x00, 0x00,
  0x00, 0x00, 0x00, 0x00, 0x00, 0x00, 0x00, 0x00, 0x00, 0x00, 0x00, 0x00,
  0x00, 0x00, 0x00, 0x00, 0x00, 0x00, 0x00, 0x00, 0x00, 0x00, 0x00, 0x00,
  0x00, 0x00, 0x00, 0x00, 0x00, 0x00, 0x00, 0x00, 0x00, 0x00, 0x00, 0x00,
  0x00, 0x00, 0x00, 0x00, 0x00, 0x00, 0x00, 0x00, 0x00, 0x00, 0x00, 0x00,
  0x00, 0x00, 0x00, 0x00, 0x00, 0x00, 0x00, 0x00, 0x00, 0x00, 0x00, 0x00,
  0x00, 0x00, 0x00, 0x00, 0x00, 0x00, 0x00, 0x00, 0x20, 0x00, 0x00, 0x00,
  0x6b, 0xc0, 0x83, 0x38, 0x53, 0xce, 0x8e, 0x39, 0xce, 0xc4, 0x62, 0x39,
  0x7d, 0xc8, 0x95, 0x39, 0x20, 0xf9, 0xa7, 0x39, 0xa9, 0xc5, 0x86, 0x39,
  0x6e, 0xfe, 0x3b, 0x39, 0x77, 0xd3, 0xe9, 0x39, 0xee, 0x3b, 0x7d, 0x39,
  0xd6, 0xdd, 0xb7, 0x38, 0x93, 0xb0, 0x68, 0x39, 0xe4, 0x06, 0xc3, 0x39,
  0x6c, 0x21, 0x9a, 0x39, 0x36, 0xc6, 0x8d, 0x39, 0xb1, 0x93, 0xbc, 0x38,
  0x48, 0x5f, 0xbc, 0x38, 0xf8, 0xeb, 0x25, 0x39, 0xac, 0xa2, 0x97, 0x39,
  0x26, 0x79, 0x91, 0x39, 0xcc, 0x70, 0xab, 0x39, 0x04, 0xaa, 0x07, 0x39,
  0xcd, 0x6f, 0xb3, 0x39, 0xc6, 0xd7, 0xd6, 0x39, 0x77, 0xb6, 0x7b, 0x39,
  0x15, 0xab, 0x86, 0x39, 0x09, 0x1c, 0xa8, 0x39, 0x28, 0x6e, 0x69, 0x39,
  0x7e, 0xe0, 0xb6, 0x39, 0xeb, 0x76, 0xa0, 0x39, 0x5e, 0x1a, 0x94, 0x39,
  0x4a, 0xe9, 0xac, 0x39, 0x14, 0x2a, 0x87, 0x39, 0x5e, 0x00, 0x00, 0x00,
  0x50, 0x4e, 0x65, 0x74, 0x2f, 0x50, 0x4e, 0x65, 0x74, 0x5f, 0x43, 0x4f,
  0x4e, 0x56, 0x33, 0x2f, 0x42, 0x69, 0x61, 0x73, 0x41, 0x64, 0x64, 0x3b,
  0x50, 0x4e, 0x65, 0x74, 0x2f, 0x50, 0x4e, 0x65, 0x74, 0x5f, 0x43, 0x4f,
  0x4e, 0x56, 0x33, 0x2f, 0x43, 0x6f, 0x6e, 0x76, 0x32, 0x44, 0x3b, 0x50,
  0x4e, 0x65, 0x74, 0x2f, 0x50, 0x4e, 0x65, 0x74, 0x5f, 0x43, 0x4f, 0x4e,
  0x56, 0x33, 0x2f, 0x42, 0x69, 0x61, 0x73, 0x41, 0x64, 0x64, 0x2f, 0x52,
  0x65, 0x61, 0x64, 0x56, 0x61, 0x72, 0x69, 0x61, 0x62, 0x6c, 0x65, 0x4f,
  0x70, 0x2f, 0x72, 0x65, 0x73, 0x6f, 0x75, 0x72, 0x63, 0x65, 0x00, 0x00,
  0x01, 0x00, 0x00, 0x00, 0x20, 0x00, 0x00, 0x00, 0xee, 0xf5, 0xff, 0xff,
  0x00, 0x00, 0x00, 0x09, 0xb8, 0x00, 0x00, 0x00, 0x0a, 0x00, 0x00, 0x00,
  0x40, 0x00, 0x00, 0x00, 0x04, 0x00, 0x00, 0x00, 0x7c, 0xf4, 0xff, 0xff,
  0x2c, 0x00, 0x00, 0x00, 0x20, 0x00, 0x00, 0x00, 0x14, 0x00, 0x00, 0x00,
  0x04, 0x00, 0x00, 0x00, 0x01, 0x00, 0x00, 0x00, 0x00, 0x00, 0x00, 0x00,
  0x00, 0x00, 0x00, 0x00, 0x01, 0x00, 0x00, 0x00, 0xd7, 0xe7, 0x2e, 0x3c,
  0x01, 0x00, 0x00, 0x00, 0x07, 0x8a, 0xad, 0x3f, 0x01, 0x00, 0x00, 0x00,
  0xb8, 0xef, 0x7e, 0xbf, 0x69, 0x00, 0x00, 0x00, 0x50, 0x4e, 0x65, 0x74,
  0x2f, 0x50, 0x4e, 0x65, 0x74, 0x5f, 0x52, 0x45, 0x4c, 0x55, 0x32, 0x2f,
  0x61, 0x64, 0x64, 0x3b, 0x50, 0x4e, 0x65, 0x74, 0x2f, 0x50, 0x4e, 0x65,
  0x74, 0x5f, 0x52, 0x45, 0x4c, 0x55, 0x32, 0x2f, 0x52, 0x65, 0x6c, 0x75,
  0x3b, 0x50, 0x4e, 0x65, 0x74, 0x2f, 0x50, 0x4e, 0x65, 0x74, 0x5f, 0x52,
  0x45, 0x4c, 0x55, 0x32, 0x2f, 0x4e, 0x65, 0x67, 0x5f, 0x31, 0x3b, 0x50,
  0x4e, 0x65, 0x74, 0x2f, 0x50, 0x4e, 0x65, 0x74, 0x5f, 0x52, 0x45, 0x4c,
  0x55, 0x32, 0x2f, 0x52, 0x65, 0x6c, 0x75, 0x5f, 0x31, 0x3b, 0x50, 0x4e,
  0x65, 0x74, 0x2f, 0x50, 0x4e, 0x65, 0x74, 0x5f, 0x52, 0x45, 0x4c, 0x55,
  0x32, 0x2f, 0x6d, 0x75, 0x6c, 0x00, 0x00, 0x00, 0x03, 0x00, 0x00, 0x00,
  0x03, 0x00, 0x00, 0x00, 0x03, 0x00, 0x00, 0x00, 0x10, 0x00, 0x00, 0x00,
  0xbe, 0xf6, 0xff, 0xff, 0x00, 0x00, 0x00, 0x02, 0x48, 0x01, 0x00, 0x00,
  0x09, 0x00, 0x00, 0x00, 0xdc, 0x00, 0x00, 0x00, 0x04, 0x00, 0x00, 0x00,
  0xd4, 0xfd, 0xff, 0xff, 0x8c, 0x00, 0x00, 0x00, 0x04, 0x00, 0x00, 0x00,
  0x10, 0x00, 0x00, 0x00, 0x00, 0x00, 0x00, 0x00, 0x00, 0x00, 0x00, 0x00,
  0x00, 0x00, 0x00, 0x00, 0x00, 0x00, 0x00, 0x00, 0x00, 0x00, 0x00, 0x00,
  0x00, 0x00, 0x00, 0x00, 0x00, 0x00, 0x00, 0x00, 0x00, 0x00, 0x00, 0x00,
  0x00, 0x00, 0x00, 0x00, 0x00, 0x00, 0x00, 0x00, 0x00, 0x00, 0x00, 0x00,
  0x00, 0x00, 0x00, 0x00, 0x00, 0x00, 0x00, 0x00, 0x00, 0x00, 0x00, 0x00,
  0x00, 0x00, 0x00, 0x00, 0x00, 0x00, 0x00, 0x00, 0x00, 0x00, 0x00, 0x00,
  0x00, 0x00, 0x00, 0x00, 0x00, 0x00, 0x00, 0x00, 0x00, 0x00, 0x00, 0x00,
  0x00, 0x00, 0x00, 0x00, 0x00, 0x00, 0x00, 0x00, 0x00, 0x00, 0x00, 0x00,
  0x00, 0x00, 0x00, 0x00, 0x00, 0x00, 0x00, 0x00, 0x00, 0x00, 0x00, 0x00,
  0x00, 0x00, 0x00, 0x00, 0x00, 0x00, 0x00, 0x00, 0x00, 0x00, 0x00, 0x00,
  0x00, 0x00, 0x00, 0x00, 0x00, 0x00, 0x00, 0x00, 0x00, 0x00, 0x00, 0x00,
  0x10, 0x00, 0x00, 0x00, 0x80, 0xbf, 0x86, 0x39, 0x9e, 0xc2, 0xad, 0x39,
  0xba, 0xde, 0x88, 0x39, 0x59, 0xeb, 0xed, 0x39, 0x9e, 0x54, 0x92, 0x39,
  0xad, 0x1b, 0xe6, 0x39, 0x04, 0x71, 0x0f, 0x3a, 0xfd, 0x36, 0xe6, 0x39,
  0x29, 0xe7, 0xa3, 0x39, 0x76, 0x31, 0xe7, 0x39, 0xff, 0xc7, 0xe5, 0x39,
  0x51, 0x0e, 0x90, 0x39, 0xf5, 0x98, 0x9f, 0x39, 0x16, 0xa4, 0x22, 0x3a,
  0x59, 0x38, 0x05, 0x3a, 0xfd, 0x97, 0xb2, 0x39, 0x5e, 0x00, 0x00, 0x00,
  0x50, 0x4e, 0x65, 0x74, 0x2f, 0x50, 0x4e, 0x65, 0x74, 0x5f, 0x43, 0x4f,
  0x4e, 0x56, 0x32, 0x2f, 0x42, 0x69, 0x61, 0x73, 0x41, 0x64, 0x64, 0x3b,
  0x50, 0x4e, 0x65, 0x74, 0x2f, 0x50, 0x4e, 0x65, 0x74, 0x5f, 0x43, 0x4f,
  0x4e, 0x56, 0x32, 0x2f, 0x43, 0x6f, 0x6e, 0x76, 0x32, 0x44, 0x3b, 0x50,
  0x4e, 0x65, 0x74, 0x2f, 0x50, 0x4e, 0x65, 0x74, 0x5f, 0x43, 0x4f, 0x4e,
  0x56, 0x32, 0x2f, 0x42, 0x69, 0x61, 0x73, 0x41, 0x64, 0x64, 0x2f, 0x52,
  0x65, 0x61, 0x64, 0x56, 0x61, 0x72, 0x69, 0x61, 0x62, 0x6c, 0x65, 0x4f,
  0x70, 0x2f, 0x72, 0x65, 0x73, 0x6f, 0x75, 0x72, 0x63, 0x65, 0x00, 0x00,
  0x01, 0x00, 0x00, 0x00, 0x10, 0x00, 0x00, 0x00, 0x16, 0xf8, 0xff, 0xff,
  0x00, 0x00, 0x00, 0x09, 0xbc, 0x00, 0x00, 0x00, 0x08, 0x00, 0x00, 0x00,
  0x44, 0x00, 0x00, 0x00, 0x04, 0x00, 0x00, 0x00, 0xa4, 0xf6, 0xff, 0xff,
  0x30, 0x00, 0x00, 0x00, 0x24, 0x00, 0x00, 0x00, 0x18, 0x00, 0x00, 0x00,
  0x04, 0x00, 0x00, 0x00, 0x01, 0x00, 0x00, 0x00, 0x00, 0x00, 0x00, 0x00,
  0x00, 0x00, 0x00, 0x00, 0x00, 0x00, 0x00, 0x00, 0x01, 0x00, 0x00, 0x00,
  0x8a, 0xb7, 0x11, 0x3d, 0x01, 0x00, 0x00, 0x00, 0x1b, 0x94, 0x90, 0x40,
  0x01, 0x00, 0x00, 0x00, 0x7c, 0x94, 0xd4, 0xbf, 0x69, 0x00, 0x00, 0x00,
  0x50, 0x4e, 0x65, 0x74, 0x2f, 0x50, 0x4e, 0x65, 0x74, 0x5f, 0x52, 0x45,
  0x4c, 0x55, 0x31, 0x2f, 0x61, 0x64, 0x64, 0x3b, 0x50, 0x4e, 0x65, 0x74,
  0x2f, 0x50, 0x4e, 0x65, 0x74, 0x5f, 0x52, 0x45, 0x4c, 0x55, 0x31, 0x2f,
  0x52, 0x65, 0x6c, 0x75, 0x3b, 0x50, 0x4e, 0x65, 0x74, 0x2f, 0x50, 0x4e,
  0x65, 0x74, 0x5f, 0x52, 0x45, 0x4c, 0x55, 0x31, 0x2f, 0x4e, 0x65, 0x67,
  0x5f, 0x31, 0x3b, 0x50, 0x4e, 0x65, 0x74, 0x2f, 0x50, 0x4e, 0x65, 0x74,
  0x5f, 0x52, 0x45, 0x4c, 0x55, 0x31, 0x2f, 0x52, 0x65, 0x6c, 0x75, 0x5f,
  0x31, 0x3b, 0x50, 0x4e, 0x65, 0x74, 0x2f, 0x50, 0x4e, 0x65, 0x74, 0x5f,
  0x52, 0x45, 0x4c, 0x55, 0x31, 0x2f, 0x6d, 0x75, 0x6c, 0x00, 0x00, 0x00,
  0x03, 0x00, 0x00, 0x00, 0x0a, 0x00, 0x00, 0x00, 0x0a, 0x00, 0x00, 0x00,
  0x0a, 0x00, 0x00, 0x00, 0xea, 0xf8, 0xff, 0xff, 0x00, 0x00, 0x00, 0x02,
  0x0c, 0x01, 0x00, 0x00, 0x07, 0x00, 0x00, 0x00, 0xa0, 0x00, 0x00, 0x00,
  0x10, 0x00, 0x00, 0x00, 0x0c, 0x00, 0x0c, 0x00, 0x00, 0x00, 0x00, 0x00,
  0x04, 0x00, 0x08, 0x00, 0x0c, 0x00, 0x00, 0x00, 0x5c, 0x00, 0x00, 0x00,
  0x04, 0x00, 0x00, 0x00, 0x0a, 0x00, 0x00, 0x00, 0x00, 0x00, 0x00, 0x00,
  0x00, 0x00, 0x00, 0x00, 0x00, 0x00, 0x00, 0x00, 0x00, 0x00, 0x00, 0x00,
  0x00, 0x00, 0x00, 0x00, 0x00, 0x00, 0x00, 0x00, 0x00, 0x00, 0x00, 0x00,
  0x00, 0x00, 0x00, 0x00, 0x00, 0x00, 0x00, 0x00, 0x00, 0x00, 0x00, 0x00,
  0x00, 0x00, 0x00, 0x00, 0x00, 0x00, 0x00, 0x00, 0x00, 0x00, 0x00, 0x00,
  0x00, 0x00, 0x00, 0x00, 0x00, 0x00, 0x00, 0x00, 0x00, 0x00, 0x00, 0x00,
  0x00, 0x00, 0x00, 0x00, 0x00, 0x00, 0x00, 0x00, 0x00, 0x00, 0x00, 0x00,
  0x00, 0x00, 0x00, 0x00, 0x0a, 0x00, 0x00, 0x00, 0x15, 0xf4, 0x83, 0x37,
  0xf4, 0x5d, 0x82, 0x37, 0x2d, 0x43, 0xe3, 0x37, 0x47, 0x52, 0x84, 0x37,
  0xe4, 0xdb, 0x90, 0x37, 0x51, 0xc0, 0x87, 0x37, 0x91, 0x1d, 0x9c, 0x37,
  0xdf, 0x72, 0x97, 0x37, 0x2b, 0x65, 0xbe, 0x37, 0xc3, 0x83, 0x7f, 0x37,
  0x5e, 0x00, 0x00, 0x00, 0x50, 0x4e, 0x65, 0x74, 0x2f, 0x50, 0x4e, 0x65,
  0x74, 0x5f, 0x43, 0x4f, 0x4e, 0x56, 0x31, 0x2f, 0x42, 0x69, 0x61, 0x73,
  0x41, 0x64, 0x64, 0x3b, 0x50, 0x4e, 0x65, 0x74, 0x2f, 0x50, 0x4e, 0x65,
  0x74, 0x5f, 0x43, 0x4f, 0x4e, 0x56, 0x31, 0x2f, 0x43, 0x6f, 0x6e, 0x76,
  0x32, 0x44, 0x3b, 0x50, 0x4e, 0x65, 0x74, 0x2f, 0x50, 0x4e, 0x65, 0x74,
  0x5f, 0x43, 0x4f, 0x4e, 0x56, 0x31, 0x2f, 0x42, 0x69, 0x61, 0x73, 0x41,
  0x64, 0x64, 0x2f, 0x52, 0x65, 0x61, 0x64, 0x56, 0x61, 0x72, 0x69, 0x61,
  0x62, 0x6c, 0x65, 0x4f, 0x70, 0x2f, 0x72, 0x65, 0x73, 0x6f, 0x75, 0x72,
  0x63, 0x65, 0x00, 0x00, 0x01, 0x00, 0x00, 0x00, 0x0a, 0x00, 0x00, 0x00,
  0x06, 0xfa, 0xff, 0xff, 0x00, 0x00, 0x00, 0x09, 0x7c, 0x00, 0x00, 0x00,
  0x06, 0x00, 0x00, 0x00, 0x58, 0x00, 0x00, 0x00, 0x04, 0x00, 0x00, 0x00,
  0x94, 0xf8, 0xff, 0xff, 0x40, 0x00, 0x00, 0x00, 0x30, 0x00, 0x00, 0x00,
  0x20, 0x00, 0x00, 0x00, 0x04, 0x00, 0x00, 0x00, 0x02, 0x00, 0x00, 0x00,
  0x00, 0x00, 0x00, 0x00, 0x00, 0x00, 0x00, 0x00, 0x00, 0x00, 0x00, 0x00,
  0x00, 0x00, 0x00, 0x00, 0x00, 0x00, 0x00, 0x00, 0x02, 0x00, 0x00, 0x00,
  0xf3, 0x0b, 0xd0, 0x3b, 0xfa, 0xc3, 0xa8, 0x3b, 0x02, 0x00, 0x00, 0x00,
  0xdb, 0x6b, 0x4e, 0x3f, 0x96, 0xf2, 0x1b, 0x3f, 0x02, 0x00, 0x00, 0x00,
  0x64, 0x7b, 0x4b, 0xbf, 0x72, 0x72, 0x27, 0xbf, 0x16, 0x00, 0x00, 0x00,
  0x50, 0x4e, 0x65, 0x74, 0x2f, 0x50, 0x4e, 0x65, 0x74, 0x5f, 0x43, 0x4f,
  0x4e, 0x56, 0x34, 0x2f, 0x43, 0x6f, 0x6e, 0x76, 0x32, 0x44, 0x00, 0x00,
  0x04, 0x00, 0x00, 0x00, 0x02, 0x00, 0x00, 0x00, 0x01, 0x00, 0x00, 0x00,
  0x01, 0x00, 0x00, 0x00, 0x20, 0x00, 0x00, 0x00, 0x9e, 0xfa, 0xff, 0xff,
  0x00, 0x00, 0x00, 0x09, 0xa4, 0x00, 0x00, 0x00, 0x05, 0x00, 0x00, 0x00,
  0x7c, 0x00, 0x00, 0x00, 0x04, 0x00, 0x00, 0x00, 0x2c, 0xf9, 0xff, 0xff,
  0x5c, 0x00, 0x00, 0x00, 0x44, 0x00, 0x00, 0x00, 0x2c, 0x00, 0x00, 0x00,
  0x04, 0x00, 0x00, 0x00, 0x04, 0x00, 0x00, 0x00, 0x00, 0x00, 0x00, 0x00,
  0x00, 0x00, 0x00, 0x00, 0x00, 0x00, 0x00, 0x00, 0x00, 0x00, 0x00, 0x00,
  0x00, 0x00, 0x00, 0x00, 0x00, 0x00, 0x00, 0x00, 0x00, 0x00, 0x00, 0x00,
  0x00, 0x00, 0x00, 0x00, 0x04, 0x00, 0x00, 0x00, 0x50, 0x89, 0xcc, 0x3a,
  0xa9, 0x69, 0x1d, 0x3b, 0x01, 0xb2, 0xae, 0x3b, 0xea, 0x59, 0x3a, 0x3b,
  0x04, 0x00, 0x00, 0x00, 0x49, 0x53, 0xde, 0x3c, 0x97, 0xf3, 0x57, 0x3d,
  0x20, 0x93, 0x4e, 0x3d, 0x36, 0xe5, 0xb8, 0x3e, 0x04, 0x00, 0x00, 0x00,
  0x3d, 0xf0, 0x4a, 0xbe, 0xd6, 0x2e, 0x9c, 0xbe, 0x9d, 0x54, 0x2d, 0xbf,
  0x88, 0xf1, 0x4d, 0xbd, 0x19, 0x00, 0x00, 0x00, 0x50, 0x4e, 0x65, 0x74,
  0x2f, 0x42, 0x42, 0x5f, 0x52, 0x45, 0x47, 0x52, 0x45, 0x53, 0x53, 0x49,
  0x4f, 0x4e, 0x2f, 0x43, 0x6f, 0x6e, 0x76, 0x32, 0x44, 0x00, 0x00, 0x00,
  0x04, 0x00, 0x00, 0x00, 0x04, 0x00, 0x00, 0x00, 0x01, 0x00, 0x00, 0x00,
  0x01, 0x00, 0x00, 0x00, 0x20, 0x00, 0x00, 0x00, 0x5e, 0xfb, 0xff, 0xff,
  0x00, 0x00, 0x00, 0x09, 0xd4, 0x02, 0x00, 0x00, 0x04, 0x00, 0x00, 0x00,
  0xb0, 0x02, 0x00, 0x00, 0x04, 0x00, 0x00, 0x00, 0xec, 0xf9, 0xff, 0xff,
  0x20, 0x02, 0x00, 0x00, 0x98, 0x01, 0x00, 0x00, 0x10, 0x01, 0x00, 0x00,
  0x04, 0x00, 0x00, 0x00, 0x20, 0x00, 0x00, 0x00, 0x00, 0x00, 0x00, 0x00,
  0x00, 0x00, 0x00, 0x00, 0x00, 0x00, 0x00, 0x00, 0x00, 0x00, 0x00, 0x00,
  0x00, 0x00, 0x00, 0x00, 0x00, 0x00, 0x00, 0x00, 0x00, 0x00, 0x00, 0x00,
  0x00, 0x00, 0x00, 0x00, 0x00, 0x00, 0x00, 0x00, 0x00, 0x00, 0x00, 0x00,
  0x00, 0x00, 0x00, 0x00, 0x00, 0x00, 0x00, 0x00, 0x00, 0x00, 0x00, 0x00,
  0x00, 0x00, 0x00, 0x00, 0x00, 0x00, 0x00, 0x00, 0x00, 0x00, 0x00, 0x00,
  0x00, 0x00, 0x00, 0x00, 0x00, 0x00, 0x00, 0x00, 0x00, 0x00, 0x00, 0x00,
  0x00, 0x00, 0x00, 0x00, 0x00, 0x00, 0x00, 0x00, 0x00, 0x00, 0x00, 0x00,
  0x00, 0x00, 0x00, 0x00, 0x00, 0x00, 0x00, 0x00, 0x00, 0x00, 0x00, 0x00,
  0x00, 0x00, 0x00, 0x00, 0x00, 0x00, 0x00, 0x00, 0x00, 0x00, 0x00, 0x00,
  0x00, 0x00, 0x00, 0x00, 0x00, 0x00, 0x00, 0x00, 0x00, 0x00, 0x00, 0x00,
  0x00, 0x00, 0x00, 0x00, 0x00, 0x00, 0x00, 0x00, 0x00, 0x00, 0x00, 0x00,
  0x00, 0x00, 0x00, 0x00, 0x00, 0x00, 0x00, 0x00, 0x00, 0x00, 0x00, 0x00,
  0x00, 0x00, 0x00, 0x00, 0x00, 0x00, 0x00, 0x00, 0x00, 0x00, 0x00, 0x00,
  0x00, 0x00, 0x00, 0x00, 0x00, 0x00, 0x00, 0x00, 0x00, 0x00, 0x00, 0x00,
  0x00, 0x00, 0x00, 0x00, 0x00, 0x00, 0x00, 0x00, 0x00, 0x00, 0x00, 0x00,
  0x00, 0x00, 0x00, 0x00, 0x00, 0x00, 0x00, 0x00, 0x00, 0x00, 0x00, 0x00,
  0x00, 0x00, 0x00, 0x00, 0x00, 0x00, 0x00, 0x00, 0x00, 0x00, 0x00, 0x00,
  0x00, 0x00, 0x00, 0x00, 0x00, 0x00, 0x00, 0x00, 0x00, 0x00, 0x00, 0x00,
  0x00, 0x00, 0x00, 0x00, 0x00, 0x00, 0x00, 0x00, 0x00, 0x00, 0x00, 0x00,
  0x00, 0x00, 0x00, 0x00, 0x00, 0x00, 0x00, 0x00, 0x00, 0x00, 0x00, 0x00,
  0x00, 0x00, 0x00, 0x00, 0x00, 0x00, 0x00, 0x00, 0x00, 0x00, 0x00, 0x00,
  0x00, 0x00, 0x00, 0x00, 0x20, 0x00, 0x00, 0x00, 0x0c, 0x18, 0xc1, 0x3a,
  0x88, 0x4b, 0xd1, 0x3b, 0xd1, 0x2c, 0xa6, 0x3b, 0x50, 0x85, 0xdb, 0x3b,
  0x0a, 0x2e, 0xf6, 0x3b, 0x4e, 0x85, 0xc5, 0x3b, 0xd1, 0xc2, 0x89, 0x3b,
  0xbb, 0x58, 0x2b, 0x3c, 0x99, 0x91, 0xb9, 0x3b, 0x8d, 0xbc, 0x06, 0x3b,
  0x91, 0x83, 0xaa, 0x3b, 0x30, 0xea, 0x0e, 0x3c, 0x6c, 0xe4, 0xe1, 0x3b,
  0x73, 0xc8, 0xcf, 0x3b, 0x32, 0x30, 0x0a, 0x3b, 0xca, 0x09, 0x0a, 0x3b,
  0x60, 0x2c, 0x73, 0x3b, 0x46, 0x3c, 0xde, 0x3b, 0x45, 0x34, 0xd5, 0x3b,
  0x00, 0x43, 0xfb, 0x3b, 0xfb, 0xd3, 0x46, 0x3b, 0x89, 0x7d, 0x03, 0x3c,
  0x92, 0x6f, 0x1d, 0x3c, 0x33, 0x74, 0xb8, 0x3b, 0x5a, 0x5e, 0xc5, 0x3b,
  0x34, 0x61, 0xf6, 0x3b, 0x7e, 0x0e, 0xab, 0x3b, 0xe7, 0x02, 0x06, 0x3c,
  0xde, 0x2c, 0xeb, 0x3b, 0xef, 0x0e, 0xd9, 0x3b, 0xc9, 0x6a, 0xfd, 0x3b,
  0x79, 0x18, 0xc6, 0x3b, 0x20, 0x00, 0x00, 0x00, 0x00, 0x4f, 0x29, 0x3e,
  0xf1, 0xa8, 0x4f, 0x3f, 0x84, 0x00, 0x22, 0x3f, 0xd1, 0x10, 0x42, 0x3f,
  0xc2, 0x1c, 0x55, 0x3f, 0xbd, 0xe6, 0x40, 0x3f, 0xe1, 0xb3, 0xd7, 0x3e,
  0x0a, 0x02, 0xaa, 0x3f, 0x76, 0x1e, 0x38, 0x3f, 0x14, 0xaf, 0x85, 0x3e,
  0x8a, 0x2e, 0x29, 0x3f, 0xf9, 0x10, 0x3b, 0x3f, 0xa3, 0x20, 0x60, 0x3f,
  0xe0, 0x7c, 0x3f, 0x3f, 0xd2, 0x1b, 0x89, 0x3e, 0xb6, 0xf5, 0x88, 0x3e,
  0x07, 0x46, 0xf1, 0x3e, 0xcd, 0x7f, 0x5c, 0x3f, 0x21, 0x7c, 0x42, 0x3f,
  0x7a, 0x4c, 0x79, 0x3f, 0x53, 0x46, 0xc5, 0x3e, 0xc3, 0xad, 0x4d, 0x3f,
  0xb4, 0xff, 0x35, 0x3f, 0x4b, 0x03, 0x37, 0x3f, 0x9d, 0xd3, 0x43, 0x3f,
  0x72, 0x74, 0x74, 0x3f, 0x61, 0xb8, 0x29, 0x3f, 0x98, 0x39, 0x35, 0x3f,
  0x07, 0xfe, 0x53, 0x3f, 0xd1, 0x5c, 0x57, 0x3f, 0xf3, 0x6f, 0x7b, 0x3f,
  0x48, 0x8c, 0x44, 0x3f, 0x20, 0x00, 0x00, 0x00, 0xdc, 0x95, 0x3f, 0xbe,
  0x6e, 0xdf, 0x4c, 0xbf, 0x77, 0xe0, 0x24, 0xbf, 0x45, 0xce, 0x59, 0xbf,
  0xae, 0x41, 0x74, 0xbf, 0x43, 0xfa, 0x43, 0xbf, 0x4b, 0xaf, 0x08, 0xbf,
  0xf0, 0x88, 0x7b, 0xbf, 0x79, 0xd4, 0xf4, 0xbe, 0x1d, 0xd1, 0x39, 0xbe,
  0x46, 0x7f, 0xff, 0xbe, 0x5c, 0xcc, 0x8d, 0xbf, 0x6d, 0xd5, 0x33, 0xbf,
  0xe2, 0x28, 0x4e, 0xbf, 0x9f, 0xfd, 0x7f, 0xbe, 0x8c, 0x6e, 0x39, 0xbe,
  0x55, 0x23, 0xc9, 0xbe, 0xde, 0xa3, 0x52, 0xbf, 0xdc, 0x89, 0x53, 0xbf,
  0xce, 0x7d, 0x3b, 0xbf, 0x23, 0xee, 0x31, 0xbe, 0x8e, 0x76, 0x82, 0xbf,
  0xb3, 0x34, 0x9c, 0xbf, 0x03, 0x65, 0xc8, 0xbe, 0xb7, 0xb9, 0x33, 0xbf,
  0x28, 0xe9, 0x43, 0xbf, 0x51, 0x7c, 0x20, 0xbf, 0xe1, 0xf6, 0x84, 0xbf,
  0x84, 0x56, 0x69, 0xbf, 0xc1, 0x7d, 0x4c, 0xbf, 0x5d, 0xd5, 0x6c, 0xbf,
  0xf7, 0x7a, 0x35, 0xbf, 0x16, 0x00, 0x00, 0x00, 0x50, 0x4e, 0x65, 0x74,
  0x2f, 0x50, 0x4e, 0x65, 0x74, 0x5f, 0x43, 0x4f, 0x4e, 0x56, 0x33, 0x2f,
  0x43, 0x6f, 0x6e, 0x76, 0x32, 0x44, 0x00, 0x00, 0x04, 0x00, 0x00, 0x00,
  0x20, 0x00, 0x00, 0x00, 0x03, 0x00, 0x00, 0x00, 0x03, 0x00, 0x00, 0x00,
  0x10, 0x00, 0x00, 0x00, 0x4e, 0xfe, 0xff, 0xff, 0x00, 0x00, 0x00, 0x09,
  0x94, 0x01, 0x00, 0x00, 0x03, 0x00, 0x00, 0x00, 0x70, 0x01, 0x00, 0x00,
  0x04, 0x00, 0x00, 0x00, 0xdc, 0xfc, 0xff, 0xff, 0x20, 0x01, 0x00, 0x00,
  0xd8, 0x00, 0x00, 0x00, 0x90, 0x00, 0x00, 0x00, 0x04, 0x00, 0x00, 0x00,
  0x10, 0x00, 0x00, 0x00, 0x00, 0x00, 0x00, 0x00, 0x00, 0x00, 0x00, 0x00,
  0x00, 0x00, 0x00, 0x00, 0x00, 0x00, 0x00, 0x00, 0x00, 0x00, 0x00, 0x00,
  0x00, 0x00, 0x00, 0x00, 0x00, 0x00, 0x00, 0x00, 0x00, 0x00, 0x00, 0x00,
  0x00, 0x00, 0x00, 0x00, 0x00, 0x00, 0x00, 0x00, 0x00, 0x00, 0x00, 0x00,
  0x00, 0x00, 0x00, 0x00, 0x00, 0x00, 0x00, 0x00, 0x00, 0x00, 0x00, 0x00,
  0x00, 0x00, 0x00, 0x00, 0x00, 0x00, 0x00, 0x00, 0x00, 0x00, 0x00, 0x00,
  0x00, 0x00, 0x00, 0x00, 0x00, 0x00, 0x00, 0x00, 0x00, 0x00, 0x00, 0x00,
  0x00, 0x00, 0x00, 0x00, 0x00, 0x00, 0x00, 0x00, 0x00, 0x00, 0x00, 0x00,
  0x00, 0x00, 0x00, 0x00, 0x00, 0x00, 0x00, 0x00, 0x00, 0x00, 0x00, 0x00,
  0x00, 0x00, 0x00, 0x00, 0x00, 0x00, 0x00, 0x00, 0x00, 0x00, 0x00, 0x00,
  0x00, 0x00, 0x00, 0x00, 0x00, 0x00, 0x00, 0x00, 0x00, 0x00, 0x00, 0x00,
  0x00, 0x00, 0x00, 0x00, 0x10, 0x00, 0x00, 0x00, 0x63, 0x1a, 0xa0, 0x3b,
  0xbe, 0x74, 0xce, 0x3b, 0xd5, 0x9f, 0xa2, 0x3b, 0x07, 0x58, 0x0d, 0x3c,
  0x71, 0xdd, 0xad, 0x3b, 0x0e, 0xb4, 0x08, 0x3c, 0xac, 0x6e, 0x2a, 0x3c,
  0x48, 0xc4, 0x08, 0x3c, 0x75, 0xbe, 0xc2, 0x3b, 0x15, 0x59, 0x09, 0x3c,
  0x58, 0x82, 0x08, 0x3c, 0x92, 0x29, 0xab, 0x3b, 0xdb, 0xa0, 0xbd, 0x3b,
  0x97, 0x3e, 0x41, 0x3c, 0xa2, 0x49, 0x1e, 0x3c, 0xf2, 0x32, 0xd4, 0x3b,
  0x10, 0x00, 0x00, 0x00, 0xab, 0x05, 0x0c, 0x3f, 0xd5, 0xd7, 0x4c, 0x3f,
  0x95, 0x5a, 0x21, 0x3f, 0xcb, 0xb4, 0x03, 0x3f, 0xc8, 0x41, 0x19, 0x3f,
  0xbd, 0x29, 0x45, 0x3f, 0xa2, 0xd0, 0x51, 0x3f, 0xbf, 0xb2, 0x87, 0x3f,
  0xf8, 0x38, 0x41, 0x3f, 0x24, 0xcf, 0xe8, 0x3e, 0x3b, 0x6d, 0xfa, 0x3e,
  0x91, 0xe0, 0x1f, 0x3f, 0x31, 0x8b, 0x11, 0x3f, 0xa4, 0x0f, 0x26, 0x3f,
  0x09, 0x1a, 0x0a, 0x3f, 0x8c, 0x8a, 0x52, 0x3f, 0x10, 0x00, 0x00, 0x00,
  0x2e, 0xda, 0x1e, 0xbf, 0x43, 0xd3, 0x1f, 0xbf, 0x94, 0x1b, 0x06, 0xbf,
  0x57, 0x3d, 0x8c, 0xbf, 0xb6, 0x81, 0x2c, 0xbf, 0xa6, 0xa2, 0x87, 0xbf,
  0xcf, 0x19, 0xa9, 0xbf, 0xf3, 0x3f, 0x7d, 0xbf, 0xdf, 0x99, 0x33, 0xbf,
  0x63, 0x46, 0x88, 0xbf, 0x53, 0x71, 0x87, 0xbf, 0x3f, 0xd3, 0x29, 0xbf,
  0x99, 0x25, 0x3c, 0xbf, 0x1a, 0xbc, 0xbf, 0xbf, 0x0f, 0x0d, 0x9d, 0xbf,
  0xac, 0xbf, 0x2c, 0xbf, 0x16, 0x00, 0x00, 0x00, 0x50, 0x4e, 0x65, 0x74,
  0x2f, 0x50, 0x4e, 0x65, 0x74, 0x5f, 0x43, 0x4f, 0x4e, 0x56, 0x32, 0x2f,
  0x43, 0x6f, 0x6e, 0x76, 0x32, 0x44, 0x00, 0x00, 0x04, 0x00, 0x00, 0x00,
  0x10, 0x00, 0x00, 0x00, 0x03, 0x00, 0x00, 0x00, 0x03, 0x00, 0x00, 0x00,
  0x0a, 0x00, 0x00, 0x00, 0x00, 0x00, 0x0e, 0x00, 0x18, 0x00, 0x08, 0x00,
  0x07, 0x00, 0x0c, 0x00, 0x10, 0x00, 0x14, 0x00, 0x0e, 0x00, 0x00, 0x00,
  0x00, 0x00, 0x00, 0x09, 0x1c, 0x01, 0x00, 0x00, 0x02, 0x00, 0x00, 0x00,
  0xf8, 0x00, 0x00, 0x00, 0x04, 0x00, 0x00, 0x00, 0x9c, 0xfe, 0xff, 0xff,
  0xc0, 0x00, 0x00, 0x00, 0x90, 0x00, 0x00, 0x00, 0x60, 0x00, 0x00, 0x00,
  0x04, 0x00, 0x00, 0x00, 0x0a, 0x00, 0x00, 0x00, 0x00, 0x00, 0x00, 0x00,
  0x00, 0x00, 0x00, 0x00, 0x00, 0x00, 0x00, 0x00, 0x00, 0x00, 0x00, 0x00,
  0x00, 0x00, 0x00, 0x00, 0x00, 0x00, 0x00, 0x00, 0x00, 0x00, 0x00, 0x00,
  0x00, 0x00, 0x00, 0x00, 0x00, 0x00, 0x00, 0x00, 0x00, 0x00, 0x00, 0x00,
  0x00, 0x00, 0x00, 0x00, 0x00, 0x00, 0x00, 0x00, 0x00, 0x00, 0x00, 0x00,
  0x00, 0x00, 0x00, 0x00, 0x00, 0x00, 0x00, 0x00, 0x00, 0x00, 0x00, 0x00,
  0x00, 0x00, 0x00, 0x00, 0x00, 0x00, 0x00, 0x00, 0x00, 0x00, 0x00, 0x00,
  0x00, 0x00, 0x00, 0x00, 0x00, 0x00, 0x00, 0x00, 0x0a, 0x00, 0x00, 0x00,
  0x20, 0x70, 0x83, 0x3b, 0x96, 0xdb, 0x81, 0x3b, 0xe9, 0x5f, 0xe2, 0x3b,
  0xf4, 0xcd, 0x83, 0x3b, 0x08, 0x4b, 0x90, 0x3b, 0x90, 0x38, 0x87, 0x3b,
  0x73, 0x81, 0x9b, 0x3b, 0x6c, 0xdb, 0x96, 0x3b, 0xc5, 0xa6, 0xbd, 0x3b,
  0x3e, 0x84, 0x7e, 0x3b, 0x0a, 0x00, 0x00, 0x00, 0x40, 0x69, 0x02, 0x3f,
  0xdf, 0xd7, 0x00, 0x3f, 0x51, 0xcd, 0x06, 0x3f, 0x2b, 0xe1, 0xf3, 0x3e,
  0x1b, 0x8f, 0xff, 0x3e, 0x31, 0x9d, 0xb9, 0x3e, 0x16, 0x80, 0xf7, 0x3e,
  0x93, 0x3a, 0xf9, 0x3e, 0xef, 0xb2, 0xf6, 0x3e, 0xdc, 0x68, 0xda, 0x3e,
  0x0a, 0x00, 0x00, 0x00, 0xa9, 0x57, 0x9a, 0xbe, 0x53, 0x5e, 0xf2, 0xbe,
  0x29, 0x9b, 0x60, 0xbf, 0x58, 0xc6, 0x02, 0xbf, 0x72, 0x2a, 0x0f, 0xbf,
  0x1f, 0x2a, 0x06, 0xbf, 0x70, 0x4a, 0x1a, 0xbf, 0xb5, 0xad, 0x15, 0xbf,
  0x77, 0x2b, 0x3c, 0xbf, 0x36, 0x87, 0xfc, 0xbe, 0x16, 0x00, 0x00, 0x00,
  0x50, 0x4e, 0x65, 0x74, 0x2f, 0x50, 0x4e, 0x65, 0x74, 0x5f, 0x43, 0x4f,
  0x4e, 0x56, 0x31, 0x2f, 0x43, 0x6f, 0x6e, 0x76, 0x32, 0x44, 0x00, 0x00,
  0x04, 0x00, 0x00, 0x00, 0x0a, 0x00, 0x00, 0x00, 0x03, 0x00, 0x00, 0x00,
  0x03, 0x00, 0x00, 0x00, 0x03, 0x00, 0x00, 0x00, 0x14, 0x00, 0x1c, 0x00,
  0x08, 0x00, 0x07, 0x00, 0x0c, 0x00, 0x10, 0x00, 0x14, 0x00, 0x00, 0x00,
  0x00, 0x00, 0x18, 0x00, 0x14, 0x00, 0x00, 0x00, 0x00, 0x00, 0x00, 0x09,
  0x7c, 0x00, 0x00, 0x00, 0x01, 0x00, 0x00, 0x00, 0x64, 0x00, 0x00, 0x00,
  0x28, 0x00, 0x00, 0x00, 0x04, 0x00, 0x00, 0x00, 0x04, 0x00, 0x00, 0x00,
  0xff, 0xff, 0xff, 0xff, 0x0c, 0x00, 0x00, 0x00, 0x0c, 0x00, 0x00, 0x00,
  0x03, 0x00, 0x00, 0x00, 0x0c, 0x00, 0x14, 0x00, 0x04, 0x00, 0x08, 0x00,
  0x0c, 0x00, 0x10, 0x00, 0x0c, 0x00, 0x00, 0x00, 0x2c, 0x00, 0x00, 0x00,
  0x20, 0x00, 0x00, 0x00, 0x14, 0x00, 0x00, 0x00, 0x04, 0x00, 0x00, 0x00,
  0x01, 0x00, 0x00, 0x00, 0x80, 0xff, 0xff, 0xff, 0xff, 0xff, 0xff, 0xff,
  0x01, 0x00, 0x00, 0x00, 0x81, 0x80, 0x80, 0x3b, 0x01, 0x00, 0x00, 0x00,
  0x00, 0x00, 0x80, 0x3f, 0x01, 0x00, 0x00, 0x00, 0x00, 0x00, 0x00, 0x00,
  0x0a, 0x00, 0x00, 0x00, 0x50, 0x4e, 0x65, 0x74, 0x5f, 0x49, 0x6e, 0x70,
  0x75, 0x74, 0x00, 0x00, 0x04, 0x00, 0x00, 0x00, 0x01, 0x00, 0x00, 0x00,
  0x0c, 0x00, 0x00, 0x00, 0x0c, 0x00, 0x00, 0x00, 0x03, 0x00, 0x00, 0x00,
  0x04, 0x00, 0x00, 0x00, 0x4c, 0x00, 0x00, 0x00, 0x38, 0x00, 0x00, 0x00,
  0x20, 0x00, 0x00, 0x00, 0x04, 0x00, 0x00, 0x00, 0xf2, 0xff, 0xff, 0xff,
  0x00, 0x00, 0x00, 0x19, 0x02, 0x00, 0x00, 0x00, 0x00, 0x00, 0x0a, 0x00,
  0x0e, 0x00, 0x07, 0x00, 0x00, 0x00, 0x08, 0x00, 0x0a, 0x00, 0x00, 0x00,
  0x00, 0x00, 0x00, 0x11, 0x02, 0x00, 0x00, 0x00, 0x00, 0x00, 0x06, 0x00,
  0x06, 0x00, 0x05, 0x00, 0x06, 0x00, 0x00, 0x00, 0x00, 0x36, 0x0a, 0x00,
  0x0c, 0x00, 0x07, 0x00, 0x00, 0x00, 0x08, 0x00, 0x0a, 0x00, 0x00, 0x00,
  0x00, 0x00, 0x00, 0x03, 0x03, 0x00, 0x00, 0x00
};

#endif //PNET_H